/* 
  This header file contains the definition of the unsigned char array that represents 
  the binary format of the TensorFlow Lite model to be run by the Arduino sketch. 
  This TensorFlow Lite model was generated on an external development system,
  where the original Deep Neural Network model was created and trained. 
  The trained model was saved in .tflite format and its hexadecimal dump was used to build 
  the following declaration with initialization of the model array. 
  The alignas(16) directive is used to ensure that the array is aligned on a 16-byte boundary, 
  which is important for performance and to prevent some issues on ARM microcontroller architectures.

  Additionally, the labels are included as an enum and a string array to work with.
  
  Model size: 7896 bytes (HEX dump only - excluding definitions)
  Generated on: 2024-11-08 15:41:36 (GMT+08)
*/


const char *LABELS[] = {
  "no_contact",
  "perfect_posture",
  "leaning_back",
  "slouching",
  "leaning_forward",
  "leaning_left",
  "leaning_right"
};

enum Positions {
  NO_CONTACT = 0,
  PERFECT_POSTURE = 1,
  LEANING_BACK = 2,
  SLOUCHING = 3,
  LEANING_FORWARD = 4,
  LEANING_LEFT = 5,
  LEANING_RIGHT = 6
};


alignas(16) unsigned char __output_model_tflite[] = {
  0x1c, 0x00, 0x00, 0x00, 0x54, 0x46, 0x4c, 0x33, 0x14, 0x00, 0x20, 0x00,
  0x1c, 0x00, 0x18, 0x00, 0x14, 0x00, 0x10, 0x00, 0x0c, 0x00, 0x00, 0x00,
  0x08, 0x00, 0x04, 0x00, 0x14, 0x00, 0x00, 0x00, 0x1c, 0x00, 0x00, 0x00,
  0x98, 0x00, 0x00, 0x00, 0xf0, 0x00, 0x00, 0x00, 0x2c, 0x17, 0x00, 0x00,
  0x3c, 0x17, 0x00, 0x00, 0x64, 0x1e, 0x00, 0x00, 0x03, 0x00, 0x00, 0x00,
  0x01, 0x00, 0x00, 0x00, 0x10, 0x00, 0x00, 0x00, 0x00, 0x00, 0x0a, 0x00,
  0x10, 0x00, 0x0c, 0x00, 0x08, 0x00, 0x04, 0x00, 0x0a, 0x00, 0x00, 0x00,
  0x0c, 0x00, 0x00, 0x00, 0x1c, 0x00, 0x00, 0x00, 0x3c, 0x00, 0x00, 0x00,
  0x0f, 0x00, 0x00, 0x00, 0x73, 0x65, 0x72, 0x76, 0x69, 0x6e, 0x67, 0x5f,
  0x64, 0x65, 0x66, 0x61, 0x75, 0x6c, 0x74, 0x00, 0x01, 0x00, 0x00, 0x00,
  0x04, 0x00, 0x00, 0x00, 0x90, 0xff, 0xff, 0xff, 0x0a, 0x00, 0x00, 0x00,
  0x04, 0x00, 0x00, 0x00, 0x08, 0x00, 0x00, 0x00, 0x6f, 0x75, 0x74, 0x70,
  0x75, 0x74, 0x5f, 0x30, 0x00, 0x00, 0x00, 0x00, 0x01, 0x00, 0x00, 0x00,
  0x04, 0x00, 0x00, 0x00, 0xba, 0xe8, 0xff, 0xff, 0x04, 0x00, 0x00, 0x00,
  0x0c, 0x00, 0x00, 0x00, 0x6b, 0x65, 0x72, 0x61, 0x73, 0x5f, 0x74, 0x65,
  0x6e, 0x73, 0x6f, 0x72, 0x00, 0x00, 0x00, 0x00, 0x02, 0x00, 0x00, 0x00,
  0x34, 0x00, 0x00, 0x00, 0x04, 0x00, 0x00, 0x00, 0xdc, 0xff, 0xff, 0xff,
  0x0d, 0x00, 0x00, 0x00, 0x04, 0x00, 0x00, 0x00, 0x13, 0x00, 0x00, 0x00,
  0x43, 0x4f, 0x4e, 0x56, 0x45, 0x52, 0x53, 0x49, 0x4f, 0x4e, 0x5f, 0x4d,
  0x45, 0x54, 0x41, 0x44, 0x41, 0x54, 0x41, 0x00, 0x08, 0x00, 0x0c, 0x00,
  0x08, 0x00, 0x04, 0x00, 0x08, 0x00, 0x00, 0x00, 0x0c, 0x00, 0x00, 0x00,
  0x04, 0x00, 0x00, 0x00, 0x13, 0x00, 0x00, 0x00, 0x6d, 0x69, 0x6e, 0x5f,
  0x72, 0x75, 0x6e, 0x74, 0x69, 0x6d, 0x65, 0x5f, 0x76, 0x65, 0x72, 0x73,
  0x69, 0x6f, 0x6e, 0x00, 0x0e, 0x00, 0x00, 0x00, 0x38, 0x16, 0x00, 0x00,
  0x30, 0x16, 0x00, 0x00, 0x20, 0x0e, 0x00, 0x00, 0x10, 0x0d, 0x00, 0x00,
  0x80, 0x0c, 0x00, 0x00, 0x54, 0x0c, 0x00, 0x00, 0xc4, 0x08, 0x00, 0x00,
  0xb4, 0x00, 0x00, 0x00, 0xac, 0x00, 0x00, 0x00, 0xa4, 0x00, 0x00, 0x00,
  0x9c, 0x00, 0x00, 0x00, 0x94, 0x00, 0x00, 0x00, 0x74, 0x00, 0x00, 0x00,
  0x04, 0x00, 0x00, 0x00, 0x6e, 0xe9, 0xff, 0xff, 0x04, 0x00, 0x00, 0x00,
  0x60, 0x00, 0x00, 0x00, 0x0c, 0x00, 0x00, 0x00, 0x08, 0x00, 0x0e, 0x00,
  0x08, 0x00, 0x04, 0x00, 0x08, 0x00, 0x00, 0x00, 0x10, 0x00, 0x00, 0x00,
  0x28, 0x00, 0x00, 0x00, 0x00, 0x00, 0x06, 0x00, 0x08, 0x00, 0x04, 0x00,
  0x06, 0x00, 0x00, 0x00, 0x04, 0x00, 0x00, 0x00, 0x01, 0x00, 0x00, 0x00,
  0xea, 0x03, 0x00, 0x00, 0x0c, 0x00, 0x18, 0x00, 0x14, 0x00, 0x10, 0x00,
  0x0c, 0x00, 0x04, 0x00, 0x0c, 0x00, 0x00, 0x00, 0x6b, 0xe5, 0xc6, 0x77,
  0x11, 0x12, 0x5d, 0x96, 0x02, 0x00, 0x00, 0x00, 0x02, 0x00, 0x00, 0x00,
  0x04, 0x00, 0x00, 0x00, 0x06, 0x00, 0x00, 0x00, 0x32, 0x2e, 0x31, 0x38,
  0x2e, 0x30, 0x00, 0x00, 0xda, 0xe9, 0xff, 0xff, 0x04, 0x00, 0x00, 0x00,
  0x10, 0x00, 0x00, 0x00, 0x32, 0x2e, 0x31, 0x37, 0x2e, 0x30, 0x00, 0x00,
  0x00, 0x00, 0x00, 0x00, 0x00, 0x00, 0x00, 0x00, 0x7c, 0xe3, 0xff, 0xff,
  0x80, 0xe3, 0xff, 0xff, 0x84, 0xe3, 0xff, 0xff, 0x88, 0xe3, 0xff, 0xff,
  0x06, 0xea, 0xff, 0xff, 0x04, 0x00, 0x00, 0x00, 0x00, 0x08, 0x00, 0x00,
  0x13, 0xe8, 0x2c, 0xd4, 0xfe, 0x5b, 0x02, 0x8e, 0x3b, 0xdd, 0x5d, 0x3e,
  0x2f, 0x26, 0xb5, 0x4c, 0x38, 0x1e, 0x19, 0xbf, 0x81, 0xd7, 0xbb, 0x1b,
  0xb0, 0xad, 0xe6, 0xda, 0x41, 0x1a, 0xc0, 0x39, 0xa6, 0x1b, 0xad, 0xca,
  0x07, 0xb9, 0xf5, 0xc2, 0xd6, 0xcf, 0x41, 0x0a, 0x42, 0x08, 0xf7, 0x59,
  0xed, 0xd6, 0xde, 0x43, 0x2d, 0xda, 0xe6, 0x05, 0xb7, 0x3e, 0xf2, 0x4c,
  0xda, 0x00, 0xd7, 0xf3, 0x05, 0x83, 0x1b, 0xba, 0x0c, 0x3f, 0x03, 0x4b,
  0xcf, 0x48, 0x0d, 0x63, 0x64, 0xf7, 0x42, 0xac, 0xe4, 0x37, 0x49, 0xb8,
  0x63, 0x50, 0xa8, 0x55, 0xd8, 0x81, 0x2e, 0xd0, 0x29, 0x55, 0x19, 0x60,
  0xba, 0xd9, 0x92, 0x6a, 0xb4, 0xf6, 0xc1, 0x9d, 0x51, 0xd1, 0x65, 0xf9,
  0xb2, 0x21, 0x3c, 0x97, 0x40, 0x2b, 0x03, 0xe6, 0xc9, 0xde, 0x1f, 0xa7,
  0x2f, 0xc6, 0xa7, 0x44, 0x32, 0xf8, 0xe7, 0xff, 0x08, 0x81, 0xc6, 0x38,
  0x02, 0xca, 0x3c, 0x06, 0x0c, 0x18, 0x10, 0x02, 0xca, 0x40, 0xfa, 0x32,
  0xad, 0xd2, 0xc8, 0xb3, 0x95, 0xa8, 0x26, 0xd4, 0x11, 0xee, 0x45, 0x50,
  0xa8, 0x27, 0x33, 0x45, 0xb1, 0x12, 0x28, 0x1c, 0xcc, 0xa8, 0xd9, 0x1d,
  0xa6, 0x3b, 0xcb, 0x0c, 0xef, 0xae, 0x1c, 0xeb, 0xa3, 0xeb, 0x37, 0x13,
  0xc6, 0xdf, 0xba, 0xb6, 0xe6, 0x29, 0xff, 0xe0, 0x3b, 0xbe, 0x23, 0xb4,
  0x67, 0x41, 0x42, 0x0c, 0x81, 0x2c, 0x8b, 0x69, 0x2c, 0xf2, 0x7f, 0xde,
  0x7e, 0xf0, 0xe1, 0xd8, 0xe2, 0xf2, 0xae, 0x04, 0xb6, 0xcb, 0x50, 0x2b,
  0xdc, 0x52, 0x63, 0x44, 0x2b, 0x9a, 0x12, 0x10, 0xe3, 0xb5, 0xe8, 0x62,
  0xd0, 0x4a, 0x99, 0xf9, 0xb5, 0xef, 0x6b, 0x06, 0xa5, 0x06, 0xc3, 0x12,
  0x30, 0x9c, 0x5a, 0x94, 0x1e, 0xaa, 0x36, 0xe2, 0x02, 0xf2, 0xda, 0xf2,
  0x56, 0x1e, 0x9f, 0xf7, 0x01, 0x3b, 0xcc, 0xef, 0x98, 0xb0, 0xce, 0x43,
  0x35, 0xdd, 0xea, 0x11, 0xb3, 0x5a, 0xf7, 0x26, 0x42, 0xfa, 0x2d, 0xf6,
  0x9e, 0xf3, 0xb7, 0x55, 0x19, 0x69, 0xfa, 0xf9, 0x5a, 0x4e, 0x54, 0xf1,
  0x62, 0xee, 0x0e, 0xd9, 0x4e, 0x95, 0xec, 0x81, 0x0e, 0xf3, 0xe0, 0x4c,
  0x28, 0x2b, 0x2e, 0x5f, 0xfe, 0x07, 0x4a, 0xc8, 0xf2, 0x55, 0x37, 0x9d,
  0x87, 0xaa, 0x89, 0x93, 0x4d, 0x6d, 0x39, 0x63, 0x48, 0xe1, 0x10, 0xb0,
  0xb5, 0xbc, 0x13, 0x69, 0xe1, 0x03, 0x10, 0xf0, 0xd6, 0x89, 0xe2, 0x1d,
  0x40, 0x8f, 0xd5, 0xff, 0x84, 0x81, 0x41, 0x83, 0xa2, 0xf3, 0xa2, 0x0a,
  0xa8, 0x2e, 0x2d, 0x01, 0xbd, 0x78, 0xef, 0x28, 0xc4, 0xd7, 0xf4, 0x32,
  0xf9, 0xed, 0x5a, 0x2d, 0x3b, 0xd1, 0x5e, 0x52, 0x9f, 0x15, 0x1d, 0x8e,
  0xd6, 0xb7, 0x04, 0x23, 0x60, 0xb8, 0x25, 0x07, 0x4c, 0xa8, 0x95, 0x30,
  0x1e, 0xfb, 0x0b, 0x38, 0x26, 0xcb, 0x2c, 0x43, 0xeb, 0x1b, 0x28, 0xde,
  0x3d, 0x3b, 0x44, 0x0d, 0xfa, 0xec, 0xcc, 0x37, 0xfd, 0x0c, 0xfb, 0x32,
  0xb6, 0xcd, 0xd2, 0x0f, 0xc3, 0x23, 0x15, 0xfe, 0x07, 0x20, 0x3c, 0xee,
  0x7f, 0xdf, 0xf6, 0xda, 0xce, 0x04, 0x87, 0x19, 0xde, 0x19, 0x20, 0x3f,
  0x2b, 0xf9, 0xbf, 0x29, 0x1f, 0xe6, 0x1b, 0x0b, 0xf4, 0xfd, 0x33, 0x02,
  0x13, 0x27, 0x42, 0xdb, 0x00, 0xfd, 0xb8, 0xdd, 0xe9, 0x0b, 0xe7, 0x0d,
  0xc2, 0x17, 0xcc, 0xc7, 0x89, 0x38, 0x98, 0x6a, 0xaa, 0x4e, 0xec, 0xe3,
  0xe7, 0xff, 0xc5, 0x3e, 0xc2, 0xba, 0x3b, 0x34, 0x46, 0x31, 0xfb, 0x42,
  0x06, 0x2b, 0x43, 0xcc, 0xea, 0xd7, 0x26, 0x29, 0xf2, 0x04, 0xfe, 0xe7,
  0x64, 0xc4, 0xcc, 0x37, 0xe4, 0xa6, 0x81, 0x2a, 0x4a, 0x50, 0x1e, 0x39,
  0x18, 0x39, 0x1f, 0xe2, 0x12, 0x1d, 0x2a, 0x10, 0x52, 0xf7, 0x55, 0x2e,
  0xa8, 0x81, 0xe4, 0x1a, 0x28, 0xf4, 0x39, 0x9b, 0xed, 0x23, 0x26, 0xb8,
  0xd3, 0x97, 0xb5, 0xa7, 0x0d, 0x3c, 0x52, 0xbe, 0x98, 0xa6, 0xe0, 0x47,
  0x47, 0x40, 0xa1, 0xc5, 0x0d, 0x56, 0x15, 0xb1, 0xa3, 0x28, 0x49, 0x42,
  0xab, 0x2b, 0xaa, 0xc2, 0xd0, 0x28, 0xdd, 0xd2, 0xcb, 0xfb, 0x55, 0x9e,
  0x3a, 0x10, 0xbc, 0x2e, 0xdf, 0xeb, 0xc9, 0xc7, 0xb3, 0x3f, 0xa2, 0xeb,
  0x0c, 0xe3, 0xf3, 0xa0, 0x04, 0xd5, 0xb0, 0xd3, 0x0c, 0x67, 0x2e, 0xbd,
  0x9c, 0xab, 0xf7, 0x81, 0x4a, 0xad, 0xa8, 0x70, 0xb0, 0x96, 0xc7, 0x0c,
  0x5e, 0xdf, 0xcb, 0x28, 0xb5, 0x62, 0x50, 0x0b, 0x88, 0x2a, 0x17, 0xf8,
  0xd4, 0xd6, 0x55, 0x87, 0x61, 0x1b, 0x12, 0x9a, 0x43, 0x2c, 0x9e, 0x46,
  0xa2, 0x25, 0xf1, 0xd0, 0xca, 0xd4, 0x48, 0xdb, 0xab, 0x59, 0x3e, 0xd4,
  0x34, 0x8f, 0xdf, 0xad, 0x14, 0xca, 0xe8, 0x30, 0x09, 0xc8, 0xe0, 0xc9,
  0x44, 0x2b, 0xf8, 0xed, 0xd9, 0x2b, 0xea, 0x5e, 0xc6, 0x1d, 0x32, 0x29,
  0xd2, 0xea, 0xd4, 0x0e, 0x51, 0x2f, 0xdb, 0x4a, 0xb1, 0xf1, 0xbe, 0xe3,
  0xfe, 0x54, 0xc6, 0x86, 0x81, 0x3e, 0x4e, 0x4b, 0x84, 0x04, 0x0e, 0xf3,
  0xa8, 0xb1, 0xa5, 0xbc, 0x2c, 0xca, 0xa2, 0xe1, 0xb2, 0xfc, 0x0b, 0xb9,
  0x58, 0x50, 0x11, 0xac, 0x39, 0x4c, 0xed, 0xc7, 0x35, 0xff, 0x24, 0x23,
  0xae, 0xf7, 0x1f, 0xfb, 0x36, 0x13, 0x08, 0x1a, 0xe2, 0xea, 0xd4, 0x10,
  0x0b, 0xdb, 0xc5, 0x00, 0x7f, 0x35, 0xe3, 0x2f, 0xf1, 0x00, 0xe3, 0xec,
  0xf6, 0x49, 0xce, 0x47, 0xc8, 0x1b, 0xc0, 0x1c, 0xf9, 0xe8, 0x04, 0xdc,
  0x03, 0x43, 0xb7, 0xc5, 0x24, 0x21, 0xe7, 0xd1, 0x43, 0xd6, 0x20, 0xa6,
  0x10, 0x2d, 0x48, 0x25, 0x09, 0xba, 0x28, 0xfa, 0x09, 0xcb, 0x1c, 0xfe,
  0xc0, 0xaa, 0xef, 0x3c, 0x3b, 0x28, 0xcd, 0x36, 0xe0, 0x22, 0xdd, 0xa5,
  0xeb, 0x9b, 0x4c, 0x18, 0x81, 0xad, 0xd3, 0xff, 0x8f, 0x06, 0x29, 0xb6,
  0x9e, 0x3e, 0x72, 0x5e, 0x97, 0x8c, 0x60, 0x36, 0x98, 0x1b, 0xc1, 0xac,
  0x8a, 0xb0, 0x2c, 0xd6, 0xe3, 0x6c, 0x7a, 0xe6, 0x07, 0x02, 0x4b, 0xa4,
  0x73, 0x8d, 0x4c, 0x92, 0x10, 0x6d, 0x39, 0x39, 0xaf, 0xba, 0xcc, 0x29,
  0x13, 0x23, 0xce, 0x3f, 0x06, 0xd4, 0xe1, 0x46, 0x68, 0x8e, 0x0d, 0xae,
  0x60, 0x33, 0xed, 0xef, 0x41, 0x5d, 0xff, 0xbc, 0xf9, 0x3f, 0xee, 0x07,
  0x25, 0x30, 0xd3, 0x9a, 0x9d, 0xcb, 0xda, 0x23, 0x5a, 0xd6, 0xef, 0x41,
  0xe1, 0x28, 0xbc, 0xff, 0xfe, 0xf2, 0xba, 0xbe, 0x04, 0xc1, 0x81, 0x51,
  0x36, 0x08, 0x3e, 0xc7, 0x93, 0xd4, 0xa2, 0x54, 0x47, 0xf7, 0x42, 0x53,
  0x65, 0xe4, 0xf0, 0x07, 0x4e, 0xc7, 0x3e, 0xb0, 0xa7, 0x37, 0x6b, 0x38,
  0xf2, 0x83, 0x02, 0xcd, 0x02, 0x65, 0xd5, 0xf9, 0x81, 0xe8, 0xe3, 0xbb,
  0x9e, 0xe5, 0xac, 0xe8, 0x3c, 0x67, 0x0e, 0xf6, 0x33, 0x8c, 0x99, 0xb3,
  0x75, 0xbb, 0x4a, 0x61, 0x89, 0xdb, 0x38, 0xf1, 0x3f, 0xfc, 0xf6, 0x66,
  0x67, 0xfa, 0xfa, 0xda, 0x6f, 0x34, 0x60, 0x1a, 0x9d, 0x65, 0xb9, 0xeb,
  0x35, 0x96, 0xc2, 0xac, 0x5a, 0x89, 0x47, 0xe1, 0x1a, 0xaa, 0xdd, 0x8d,
  0x0b, 0x15, 0x10, 0xcb, 0x9f, 0xb6, 0x3a, 0x09, 0x0d, 0x5c, 0xca, 0x3f,
  0x19, 0xdc, 0x16, 0x03, 0xd9, 0x46, 0xfe, 0xba, 0x1d, 0x5e, 0x07, 0x17,
  0xa5, 0xa5, 0xcb, 0x25, 0x9a, 0x26, 0xab, 0x96, 0xd3, 0xb1, 0xd9, 0xd2,
  0x10, 0x36, 0xa7, 0x26, 0x57, 0x9f, 0x1d, 0x3e, 0xf6, 0xe0, 0x58, 0x94,
  0xab, 0xe3, 0xe2, 0x48, 0xc7, 0x1b, 0x3e, 0x20, 0x81, 0x8e, 0x0e, 0xde,
  0x36, 0x00, 0xf3, 0xe1, 0xd5, 0x2b, 0xb2, 0xe7, 0x81, 0x3e, 0xf3, 0x90,
  0x9c, 0x1a, 0x2c, 0xd2, 0xef, 0x85, 0x1d, 0x49, 0xfb, 0xa6, 0x62, 0x4b,
  0x15, 0xb9, 0x05, 0x10, 0xd0, 0xe8, 0x22, 0x05, 0xca, 0x1b, 0xaa, 0xb9,
  0xdc, 0x58, 0x8a, 0x24, 0x8d, 0x55, 0x1e, 0x4b, 0xaa, 0xfe, 0xe5, 0x89,
  0x8c, 0x10, 0x35, 0x0c, 0x8d, 0x40, 0xbf, 0x99, 0xef, 0x70, 0x5c, 0x38,
  0x1d, 0x1a, 0xd0, 0xa8, 0xfe, 0xa9, 0x15, 0x32, 0xe3, 0xd5, 0x97, 0xe6,
  0x81, 0x4b, 0xed, 0x5d, 0x1b, 0xd2, 0x96, 0xf4, 0xde, 0x5c, 0x21, 0xb9,
  0xc0, 0xb2, 0xc6, 0x1a, 0x45, 0x5f, 0x0d, 0xb5, 0x6a, 0xf0, 0xc8, 0xb5,
  0xf1, 0x0f, 0x08, 0xf0, 0x99, 0x41, 0xf3, 0x3a, 0xed, 0x44, 0xf6, 0x45,
  0x27, 0x45, 0x59, 0x42, 0x9d, 0xb6, 0xec, 0x8f, 0x72, 0x9b, 0x18, 0x37,
  0xd7, 0xac, 0x0d, 0x60, 0xb8, 0x09, 0xc2, 0x89, 0x5b, 0x6d, 0xea, 0xe3,
  0x3c, 0x1a, 0x44, 0x12, 0x7f, 0xfd, 0x46, 0x43, 0xbd, 0x46, 0x88, 0xb7,
  0x97, 0x50, 0xc3, 0xa4, 0xb2, 0x8e, 0x68, 0x5f, 0xa1, 0x2b, 0x43, 0x06,
  0xe9, 0x7c, 0xbb, 0x59, 0x17, 0x54, 0xf6, 0x9c, 0xc9, 0x4e, 0x0b, 0x55,
  0xe2, 0x73, 0xe2, 0x08, 0x9a, 0x05, 0x05, 0x3c, 0x4f, 0xbc, 0xe2, 0x55,
  0x87, 0xee, 0x56, 0xab, 0xf3, 0x0c, 0x34, 0x60, 0xf8, 0xf9, 0xde, 0x0c,
  0xe2, 0xe9, 0x93, 0x2e, 0x4a, 0x7a, 0x04, 0xf7, 0x45, 0x35, 0x55, 0x0e,
  0xf5, 0xfb, 0x1c, 0xfb, 0xcc, 0xb0, 0x33, 0x99, 0x2e, 0xb4, 0x11, 0x9a,
  0xb7, 0x3d, 0x8d, 0x69, 0x5d, 0xab, 0xa3, 0x48, 0xb3, 0xb6, 0x24, 0x71,
  0xd9, 0x0c, 0xa6, 0x8a, 0x00, 0xbb, 0xfa, 0x7f, 0xc6, 0xa0, 0x01, 0x40,
  0x50, 0x01, 0x01, 0xf1, 0xe6, 0x17, 0x34, 0x3e, 0xc8, 0xf1, 0x2d, 0x0b,
  0xd5, 0xf8, 0x9d, 0xd5, 0xcc, 0xa1, 0xb6, 0x31, 0xf0, 0x9e, 0x30, 0x3a,
  0xc2, 0xed, 0xe5, 0x06, 0x35, 0xb2, 0x29, 0xe5, 0x2b, 0xcc, 0x9d, 0x89,
  0x81, 0x49, 0xc1, 0x57, 0xa3, 0x35, 0x1c, 0x9c, 0xf8, 0xfb, 0x70, 0x3d,
  0x4d, 0xb0, 0xd8, 0xe4, 0x01, 0xd2, 0x19, 0xef, 0xc0, 0x3a, 0x24, 0xab,
  0xea, 0xac, 0x48, 0x4c, 0x9f, 0x17, 0xdd, 0xc5, 0xf7, 0xae, 0x9d, 0x25,
  0x3c, 0xa0, 0x8e, 0xbb, 0xd2, 0x9e, 0x20, 0x22, 0x28, 0xfb, 0xbd, 0xd2,
  0x16, 0xed, 0x2e, 0xaf, 0xd1, 0xf7, 0x51, 0x4d, 0x31, 0xb5, 0x97, 0x1f,
  0xf1, 0x5c, 0xde, 0x06, 0x9a, 0xef, 0x60, 0xc7, 0x26, 0x46, 0x9c, 0xb5,
  0x8a, 0xe3, 0x58, 0xbb, 0xbf, 0xe9, 0x5c, 0x6b, 0xd7, 0x9b, 0x95, 0x6a,
  0x18, 0xc9, 0x08, 0x30, 0xcf, 0x3a, 0x10, 0x2b, 0x1e, 0x24, 0xb1, 0x0c,
  0xc5, 0xf7, 0x06, 0xab, 0x31, 0x01, 0xdd, 0xfd, 0x03, 0x5a, 0xb1, 0x21,
  0x65, 0x81, 0xf8, 0x08, 0x0c, 0xb0, 0x47, 0xfb, 0x7f, 0x93, 0xe1, 0xc7,
  0x91, 0x6f, 0x23, 0x9d, 0xdc, 0xee, 0xd1, 0x1b, 0x0a, 0xe7, 0x2e, 0xf5,
  0x7d, 0xa2, 0xad, 0xa8, 0xbd, 0x18, 0x5b, 0xef, 0x18, 0x2a, 0xb2, 0x53,
  0x44, 0x95, 0x62, 0xa3, 0xbd, 0x7c, 0xd3, 0xe4, 0xd1, 0x08, 0x51, 0x8d,
  0xe7, 0x3c, 0xfd, 0xe3, 0xa4, 0x79, 0x61, 0x1e, 0x69, 0x43, 0xff, 0x44,
  0x71, 0xc2, 0xdf, 0xfd, 0x1e, 0x21, 0x26, 0x05, 0x10, 0x16, 0xea, 0x1b,
  0xe6, 0xfc, 0x42, 0xc6, 0x2c, 0x1b, 0xd3, 0xeb, 0xba, 0xce, 0xda, 0xb2,
  0xe7, 0xb1, 0xf9, 0xbb, 0x39, 0x05, 0x45, 0x40, 0x69, 0xe4, 0x00, 0x54,
  0x15, 0xe2, 0x4e, 0x0d, 0xb5, 0xad, 0x16, 0xad, 0xaa, 0x81, 0x2b, 0x4d,
  0x37, 0xfc, 0xcd, 0x27, 0x06, 0x42, 0x0c, 0xee, 0x04, 0xb1, 0x0f, 0xea,
  0x19, 0xf1, 0x34, 0xf6, 0xa3, 0x03, 0x1b, 0xdf, 0x14, 0x57, 0xc0, 0x32,
  0x14, 0x99, 0xc3, 0x1e, 0xa0, 0xd6, 0x50, 0xde, 0xde, 0xa5, 0x25, 0x54,
  0xb4, 0x1e, 0x87, 0x0d, 0x81, 0x30, 0xf3, 0x50, 0x29, 0x47, 0x30, 0x43,
  0x3d, 0x9b, 0xbd, 0x51, 0x27, 0x07, 0xb1, 0xe8, 0xd5, 0xd2, 0x5f, 0xf2,
  0xab, 0xd0, 0xa1, 0x36, 0x17, 0x32, 0xd8, 0x04, 0x41, 0x14, 0x68, 0xa4,
  0x31, 0x12, 0x39, 0xc5, 0xde, 0xf2, 0x2c, 0xca, 0x4a, 0xc2, 0x45, 0x39,
  0x18, 0x04, 0xaf, 0x58, 0x36, 0xa0, 0xfc, 0xde, 0x1f, 0x3a, 0x4d, 0x5a,
  0xac, 0xf5, 0xfc, 0xe0, 0x08, 0xd0, 0xcf, 0xd6, 0xdf, 0xe1, 0x1d, 0x27,
  0xce, 0x43, 0x74, 0xc7, 0x7f, 0x2c, 0x17, 0xbf, 0xed, 0x9c, 0x9e, 0x3d,
  0x22, 0x36, 0x56, 0x35, 0x0d, 0xfa, 0xe0, 0x18, 0x93, 0x24, 0x3c, 0x06,
  0xb7, 0xa5, 0x39, 0xe4, 0xc0, 0xde, 0x91, 0xc1, 0x39, 0xda, 0x1a, 0x18,
  0x93, 0xae, 0x61, 0xb9, 0x1a, 0xc2, 0xb6, 0xe7, 0x8a, 0x9e, 0x7d, 0x46,
  0x3f, 0x97, 0x63, 0xc1, 0x3e, 0xdd, 0xa4, 0x47, 0xda, 0xc6, 0x42, 0xab,
  0x90, 0x57, 0x02, 0xa8, 0x36, 0xe1, 0xef, 0xa5, 0x01, 0x22, 0x09, 0x81,
  0xf8, 0x33, 0x9f, 0x14, 0xe0, 0x5d, 0x24, 0x91, 0xb2, 0x47, 0x16, 0xaf,
  0x42, 0x72, 0x01, 0x95, 0xa7, 0x24, 0x1c, 0xde, 0xa5, 0x08, 0x1d, 0x61,
  0x9b, 0x85, 0xd6, 0xf3, 0xe9, 0xb0, 0x9c, 0xcd, 0xad, 0xea, 0xb1, 0x75,
  0x99, 0x91, 0x3f, 0x27, 0x26, 0xa3, 0x8a, 0x2c, 0xe9, 0xc1, 0xd1, 0x9b,
  0x81, 0x07, 0xae, 0xc2, 0x10, 0xef, 0x27, 0x40, 0x19, 0x4f, 0x0f, 0x54,
  0x9b, 0xb2, 0x22, 0xa2, 0x0a, 0xce, 0x5c, 0x37, 0x27, 0x39, 0xa3, 0xbb,
  0xce, 0x33, 0x1b, 0xa1, 0xee, 0xac, 0xcf, 0x3a, 0xf9, 0x46, 0x11, 0x35,
  0x57, 0xe2, 0x27, 0xda, 0xbf, 0x3b, 0xf0, 0xc9, 0x1b, 0x85, 0xf6, 0x2b,
  0x3c, 0xb5, 0x2d, 0x46, 0xfb, 0x21, 0x97, 0x8c, 0x82, 0x14, 0xb5, 0x37,
  0xde, 0x13, 0xb4, 0xea, 0x3f, 0x8f, 0x1a, 0x8e, 0x20, 0xaa, 0x81, 0x00,
  0x32, 0x41, 0x53, 0xc6, 0x9d, 0x23, 0xae, 0x09, 0x02, 0x4d, 0xc2, 0x12,
  0x2e, 0xf7, 0x0c, 0x32, 0x5b, 0xaa, 0xdf, 0x93, 0xdb, 0x89, 0x45, 0xf3,
  0x4e, 0xfc, 0x32, 0x53, 0xff, 0x94, 0x45, 0xf6, 0x85, 0x19, 0x58, 0x69,
  0x05, 0x17, 0x9c, 0x9a, 0xc3, 0xb2, 0xf0, 0xc4, 0x29, 0xc9, 0x2b, 0xc4,
  0xdf, 0xe1, 0x3b, 0xb0, 0x29, 0x18, 0x8b, 0xe6, 0xcc, 0xc1, 0x6b, 0x08,
  0x23, 0x0d, 0x33, 0xce, 0xb5, 0x0c, 0x37, 0x01, 0x11, 0x05, 0x2e, 0xb0,
  0x43, 0x3f, 0xeb, 0xc8, 0x4f, 0xcf, 0xba, 0xf3, 0x7f, 0x3f, 0xe5, 0x2d,
  0x0f, 0xf5, 0x14, 0xfb, 0x34, 0x00, 0xb9, 0x41, 0xef, 0xfd, 0xb8, 0xbf,
  0xd0, 0xe5, 0xd6, 0xfc, 0x05, 0x08, 0xf3, 0x4b, 0xd1, 0x89, 0xd3, 0x03,
  0x86, 0xd6, 0x9b, 0xae, 0xf9, 0xa6, 0x2c, 0xb3, 0xd6, 0x46, 0xfb, 0x91,
  0x28, 0xc6, 0x78, 0xa3, 0x63, 0xfd, 0x22, 0x42, 0xc2, 0x68, 0x2e, 0xf9,
  0xae, 0xf8, 0xd5, 0x85, 0xb1, 0x7d, 0xbb, 0x36, 0x81, 0xa8, 0xc9, 0x91,
  0xfd, 0xf8, 0xf8, 0x26, 0x81, 0x5f, 0x5f, 0xa5, 0x4c, 0x84, 0xd9, 0x98,
  0x66, 0x6c, 0xca, 0x63, 0xaa, 0x82, 0xb6, 0x13, 0xaf, 0x4b, 0xdf, 0xcd,
  0x07, 0x20, 0x51, 0x70, 0x50, 0xce, 0x09, 0x81, 0xf5, 0xe1, 0x94, 0x7f,
  0xd9, 0x67, 0xe1, 0xbd, 0xf4, 0xf3, 0x31, 0x1b, 0xfe, 0xf5, 0x21, 0x23,
  0x60, 0xa9, 0xb7, 0xf4, 0x06, 0xd5, 0x75, 0x81, 0x16, 0x00, 0xa0, 0xdd,
  0x6b, 0xf1, 0xdf, 0x6d, 0x44, 0x2e, 0xa2, 0xe0, 0xa9, 0x9c, 0x09, 0xd9,
  0xe8, 0x62, 0x10, 0x89, 0x93, 0x7b, 0x7b, 0x25, 0x9f, 0x73, 0x07, 0x54,
  0xe7, 0xd3, 0x51, 0xcf, 0xcd, 0xc6, 0x3f, 0xe4, 0x12, 0xf2, 0xff, 0xff,
  0x04, 0x00, 0x00, 0x00, 0x80, 0x03, 0x00, 0x00, 0x1e, 0xfa, 0x76, 0x3e,
  0x0c, 0x22, 0x4a, 0xbe, 0xa5, 0x2d, 0x48, 0x3e, 0xbc, 0xd8, 0x94, 0xbe,
  0x08, 0x10, 0xa5, 0x3d, 0x7c, 0x8e, 0x9a, 0xbd, 0x38, 0xe3, 0x1d, 0x3e,
  0xb3, 0xab, 0x6f, 0xbe, 0x90, 0xe5, 0xfd, 0xba, 0x3a, 0x36, 0x6b, 0x3e,
  0x92, 0x6d, 0x92, 0xbe, 0x47, 0x16, 0x42, 0xbe, 0xda, 0x08, 0x6b, 0xbe,
  0x3b, 0x96, 0x8a, 0x3d, 0x0f, 0x09, 0x85, 0x3e, 0x06, 0xc7, 0xa6, 0xbe,
  0xdf, 0x96, 0x16, 0x3d, 0xb9, 0x11, 0x96, 0xbe, 0x48, 0x44, 0x79, 0x3e,
  0x61, 0xa0, 0x83, 0xbd, 0x18, 0xcd, 0x4b, 0x3e, 0x8c, 0x01, 0x83, 0xbc,
  0xf0, 0x41, 0x9a, 0xbd, 0xa8, 0x09, 0xc3, 0xbe, 0x09, 0x6d, 0x69, 0x3c,
  0xf8, 0xc7, 0xa3, 0x3e, 0xba, 0x37, 0x5a, 0x3e, 0x12, 0x60, 0x75, 0xbe,
  0x45, 0xb9, 0x01, 0xbc, 0x42, 0xba, 0xfe, 0x3e, 0x28, 0x0e, 0x04, 0xbe,
  0x19, 0xde, 0xc2, 0xbe, 0x5d, 0x6d, 0x39, 0x3d, 0x47, 0x56, 0x75, 0xbd,
  0xc9, 0x64, 0x45, 0x3e, 0xfe, 0xe5, 0x92, 0xbe, 0x12, 0x48, 0x5e, 0xbe,
  0x56, 0xed, 0x20, 0x3e, 0xca, 0x18, 0x70, 0xbb, 0x62, 0xb8, 0x82, 0x3e,
  0xde, 0xdc, 0x92, 0x3e, 0x94, 0x48, 0x98, 0xbd, 0x02, 0x26, 0x6d, 0x3e,
  0x81, 0xbf, 0x03, 0xbe, 0x10, 0xf9, 0x36, 0x3d, 0x45, 0x7b, 0x19, 0x3e,
  0x3c, 0xe8, 0x4d, 0x3e, 0x34, 0x80, 0x8d, 0x3e, 0x02, 0x2e, 0x4e, 0x3e,
  0x10, 0x15, 0x13, 0xbc, 0xe9, 0x99, 0x92, 0x3e, 0x8f, 0xb1, 0x09, 0x3e,
  0xa4, 0x91, 0x83, 0x3e, 0x5b, 0xa7, 0xa3, 0x3d, 0xed, 0x51, 0xa0, 0x3e,
  0x33, 0xad, 0x7a, 0xbe, 0x62, 0xcc, 0x4b, 0x3e, 0xe0, 0xbc, 0x6e, 0xbd,
  0xc2, 0x3b, 0x93, 0xbe, 0xba, 0x5a, 0xa3, 0xbe, 0x05, 0x4c, 0xb2, 0x3e,
  0xbf, 0xff, 0x8b, 0x3e, 0xfa, 0x11, 0x41, 0x3e, 0xa8, 0xab, 0xc4, 0xbe,
  0x7d, 0xe2, 0x10, 0xbe, 0xa1, 0x14, 0x61, 0xbe, 0x01, 0x01, 0x9d, 0xbe,
  0x3b, 0x23, 0xbe, 0xbe, 0x69, 0x9a, 0xa3, 0x3e, 0x05, 0x42, 0x87, 0xbe,
  0xa2, 0xe2, 0x8c, 0x3d, 0xfc, 0x32, 0xa1, 0x3e, 0x12, 0x23, 0xa7, 0x3d,
  0xe6, 0x3c, 0x06, 0x3e, 0x18, 0x6b, 0xa6, 0x3e, 0x92, 0x66, 0x2f, 0xbe,
  0x8d, 0xfd, 0xa8, 0x3e, 0x43, 0x4e, 0x81, 0x3c, 0x4e, 0x23, 0x3b, 0x3e,
  0xdb, 0x4e, 0x17, 0xbe, 0x58, 0xc7, 0xa2, 0xbd, 0x29, 0x71, 0xca, 0x3e,
  0x0e, 0x7f, 0x87, 0xbd, 0x5a, 0x72, 0xc0, 0x3e, 0xf6, 0x42, 0x3a, 0x3e,
  0x7d, 0xc2, 0x60, 0xbd, 0x53, 0x68, 0xa2, 0x3e, 0xf6, 0x74, 0x90, 0x3e,
  0x64, 0xe3, 0x2b, 0x3c, 0x03, 0xec, 0x3e, 0x3e, 0x57, 0x90, 0xb4, 0x3e,
  0xc8, 0x38, 0x4d, 0xbd, 0x50, 0x92, 0xe0, 0xbd, 0x3c, 0xd1, 0xc5, 0xbe,
  0xd2, 0x94, 0x1d, 0xbe, 0xde, 0xc0, 0x39, 0x3e, 0xb6, 0x98, 0x98, 0x3e,
  0xae, 0x9f, 0x24, 0x3e, 0x18, 0x78, 0x20, 0x3e, 0x67, 0x9a, 0x3b, 0xbe,
  0x7e, 0x8b, 0xbb, 0x3d, 0xea, 0x3f, 0x4b, 0x3e, 0x87, 0x89, 0x91, 0xbe,
  0x15, 0xf8, 0x3e, 0x3e, 0x0a, 0x78, 0x7a, 0xbe, 0x56, 0xe3, 0x42, 0x3e,
  0xdf, 0x33, 0x02, 0x3e, 0x73, 0x57, 0x7d, 0xbe, 0x06, 0x26, 0x08, 0x3e,
  0x73, 0xc8, 0xa5, 0x3d, 0x62, 0x82, 0x91, 0x3e, 0x52, 0x9c, 0xef, 0xbe,
  0xf0, 0x46, 0x3a, 0xbe, 0x72, 0x60, 0x01, 0xbe, 0xfd, 0xa7, 0x55, 0x3e,
  0x28, 0x73, 0x7e, 0xbe, 0xca, 0x94, 0x22, 0xbe, 0xb6, 0x76, 0xe9, 0xba,
  0x11, 0xba, 0x0c, 0xbe, 0x31, 0x61, 0x24, 0x3e, 0x5d, 0x2c, 0x3c, 0x3e,
  0x3b, 0xe2, 0x53, 0xbe, 0x50, 0x69, 0xe8, 0x3c, 0x24, 0x50, 0xb7, 0xbe,
  0x4b, 0x2f, 0x59, 0xbe, 0x98, 0x1c, 0x73, 0x3e, 0x3a, 0x3d, 0x6e, 0xbe,
  0xec, 0x13, 0xe3, 0x3d, 0xe5, 0xcf, 0xb8, 0xbe, 0x67, 0xe3, 0x06, 0x3e,
  0x34, 0xd2, 0x0b, 0xbe, 0x0d, 0xec, 0x4e, 0xbe, 0xb0, 0x52, 0x47, 0xbe,
  0x80, 0xd6, 0xd5, 0xbc, 0x7e, 0x96, 0xba, 0x3d, 0xce, 0x9f, 0x41, 0xbe,
  0x13, 0xa6, 0x19, 0x3c, 0x4c, 0x71, 0xd3, 0xbd, 0xb4, 0x2c, 0x94, 0x3a,
  0xa4, 0x23, 0x03, 0x3e, 0x71, 0x03, 0xb8, 0x3d, 0x11, 0x39, 0x40, 0x3e,
  0x19, 0x87, 0x8c, 0xbe, 0x21, 0x76, 0xef, 0xbd, 0x06, 0xa0, 0xbb, 0xbc,
  0xff, 0x19, 0x83, 0xbe, 0x4c, 0xb6, 0x91, 0x3e, 0xb6, 0x05, 0x9e, 0x3e,
  0x31, 0x97, 0xa4, 0xbe, 0xc0, 0x04, 0xc4, 0x3e, 0xe3, 0x76, 0xaa, 0xbe,
  0x2b, 0x2b, 0xc6, 0xbc, 0x38, 0x20, 0x1f, 0xbe, 0x7f, 0x02, 0xa8, 0xbb,
  0x2a, 0x9f, 0x52, 0x3e, 0x39, 0x0e, 0x3d, 0xbe, 0x1a, 0x0e, 0x2c, 0xbd,
  0x0a, 0x3f, 0xa1, 0x3d, 0x79, 0xf7, 0x1e, 0xbe, 0x52, 0x53, 0x1a, 0x3e,
  0xa2, 0xd7, 0x5f, 0xbd, 0xca, 0x43, 0x08, 0x3e, 0x93, 0xb9, 0xc0, 0xbe,
  0x28, 0x58, 0x40, 0xbe, 0xe7, 0x2b, 0x1a, 0x3e, 0x8f, 0x68, 0xbd, 0x3e,
  0xbd, 0xf8, 0xab, 0xbd, 0x4b, 0x46, 0xb7, 0x3d, 0xbb, 0x0e, 0x52, 0xbd,
  0x70, 0x72, 0xb6, 0xbd, 0xd8, 0xea, 0x0d, 0xbe, 0xa1, 0x7b, 0x94, 0x3e,
  0xa3, 0x88, 0x65, 0xbe, 0xf8, 0xcd, 0x85, 0xbe, 0x07, 0x38, 0xbf, 0x3e,
  0xe4, 0xfe, 0xe6, 0xbd, 0xd7, 0x3f, 0x7c, 0xbe, 0x28, 0xd9, 0xce, 0x3e,
  0x61, 0x9f, 0xad, 0xbd, 0xaa, 0x42, 0x06, 0x3e, 0x9a, 0xe0, 0x75, 0x3e,
  0x38, 0x33, 0xe0, 0xbd, 0xd0, 0x51, 0x4e, 0x3d, 0x19, 0x93, 0xad, 0x3e,
  0xcc, 0x58, 0x30, 0x3e, 0xbc, 0x60, 0xb6, 0x3e, 0xec, 0x3f, 0xf8, 0xbd,
  0x20, 0x76, 0xea, 0x3c, 0x95, 0xf0, 0xb8, 0x3e, 0xfe, 0xe1, 0xad, 0xbe,
  0x80, 0x7a, 0x64, 0xbc, 0xaa, 0x7f, 0x61, 0x3e, 0xa3, 0x95, 0xe2, 0x3e,
  0x62, 0xfd, 0xf5, 0xbd, 0x7c, 0xae, 0x8c, 0xbe, 0xcc, 0xd6, 0x12, 0x3e,
  0xb3, 0xf5, 0xcb, 0xbd, 0xc4, 0x36, 0xf7, 0x3d, 0x04, 0x7d, 0x84, 0xbe,
  0xd4, 0x0e, 0x68, 0x3d, 0x1d, 0x41, 0xbc, 0xbe, 0xd7, 0xb9, 0x90, 0x3e,
  0x69, 0x83, 0xfd, 0x3d, 0x4d, 0xd1, 0x85, 0x3e, 0xd3, 0x59, 0xbe, 0xbd,
  0xb0, 0xe2, 0xfb, 0xbd, 0x85, 0x02, 0xb0, 0xbe, 0x2b, 0xb8, 0x56, 0xbe,
  0x19, 0x2e, 0xab, 0x3e, 0x57, 0x33, 0xf6, 0x3d, 0x1f, 0xa3, 0xf1, 0xbd,
  0xd0, 0xa3, 0xb6, 0xbe, 0xe1, 0xd4, 0xfa, 0x3d, 0x11, 0x0f, 0xaa, 0xbc,
  0x1a, 0x41, 0x53, 0x3e, 0x93, 0x52, 0xbe, 0xbe, 0x03, 0xbf, 0x8b, 0x3d,
  0x3b, 0xbd, 0x7c, 0x3e, 0x32, 0xec, 0x53, 0xbe, 0x91, 0xc0, 0x96, 0x3e,
  0xf6, 0x29, 0x6a, 0x3e, 0xfd, 0x01, 0xc9, 0x3c, 0x04, 0x45, 0xe2, 0x3d,
  0xce, 0x7f, 0x2f, 0xbe, 0x9e, 0xf5, 0xff, 0xff, 0x04, 0x00, 0x00, 0x00,
  0x1c, 0x00, 0x00, 0x00, 0x2e, 0x83, 0x00, 0x40, 0xbe, 0xc3, 0xf1, 0xbe,
  0x4b, 0x77, 0xbc, 0x3c, 0xe2, 0x42, 0x62, 0xbf, 0x68, 0x3e, 0xc9, 0x3c,
  0xf3, 0xb3, 0xba, 0xbd, 0xfe, 0x09, 0xf9, 0xbe, 0xc6, 0xf5, 0xff, 0xff,
  0x04, 0x00, 0x00, 0x00, 0x80, 0x00, 0x00, 0x00, 0x8a, 0x3a, 0xad, 0xbe,
  0x4b, 0x7e, 0xb0, 0xbf, 0xb3, 0x5a, 0x14, 0x3f, 0x33, 0x01, 0x8e, 0xbf,
  0xfc, 0xb7, 0xbc, 0x3e, 0x00, 0x00, 0x00, 0x00, 0x44, 0xa9, 0xbd, 0x3f,
  0x77, 0x86, 0x78, 0xbf, 0xb3, 0xf0, 0x7d, 0xbd, 0x20, 0x00, 0x02, 0xbd,
  0x53, 0xfb, 0xe0, 0xbe, 0x93, 0xda, 0xb1, 0xbe, 0x3e, 0x44, 0x59, 0xbf,
  0x08, 0x9e, 0xa4, 0x3e, 0x20, 0x08, 0x9a, 0xbc, 0x00, 0x35, 0x66, 0xbe,
  0x36, 0xde, 0x3f, 0xbd, 0xbc, 0x99, 0x39, 0xbd, 0xf4, 0x16, 0x37, 0x3f,
  0x8d, 0x42, 0x1b, 0xbd, 0x9e, 0x1d, 0x03, 0xbd, 0x54, 0x0f, 0xcf, 0xbd,
  0x69, 0x4a, 0x6e, 0xbc, 0x8d, 0x3a, 0x64, 0xbf, 0x04, 0xe2, 0x78, 0xbf,
  0xc9, 0x74, 0x2a, 0x3f, 0x00, 0x00, 0x00, 0x00, 0x60, 0xab, 0x50, 0xbd,
  0x74, 0xf5, 0x01, 0xbd, 0xbe, 0xf0, 0x51, 0x3f, 0x00, 0x00, 0x00, 0x00,
  0x00, 0x00, 0x00, 0x00, 0x52, 0xf6, 0xff, 0xff, 0x04, 0x00, 0x00, 0x00,
  0x00, 0x01, 0x00, 0x00, 0x00, 0x7c, 0x0b, 0x3e, 0xb0, 0xbd, 0xc0, 0x3e,
  0x00, 0x00, 0x00, 0x00, 0xf8, 0xd2, 0x70, 0x3f, 0xfc, 0xa7, 0xa8, 0x3f,
  0xaf, 0x0e, 0xc5, 0xbf, 0xe8, 0xac, 0x58, 0x3f, 0x8a, 0x75, 0x4a, 0x3f,
  0x00, 0x00, 0x00, 0x00, 0x00, 0x00, 0x00, 0x00, 0x26, 0x83, 0xd1, 0xbe,
  0x40, 0x63, 0x94, 0xbf, 0x24, 0x27, 0x89, 0x3e, 0x52, 0x1c, 0x7a, 0x3f,
  0x52, 0x91, 0x9e, 0x3f, 0xbe, 0xc5, 0xce, 0x3e, 0xc3, 0x14, 0x96, 0x3f,
  0x49, 0x5e, 0x95, 0xbf, 0x4d, 0x0b, 0xdb, 0xbe, 0x0f, 0x65, 0x22, 0xbd,
  0xbb, 0x12, 0x89, 0x3d, 0x00, 0x00, 0x00, 0x00, 0xce, 0x55, 0xfe, 0xbc,
  0x80, 0xba, 0xd8, 0x3b, 0xfc, 0x4d, 0xba, 0x3d, 0x44, 0xf4, 0x10, 0xbc,
  0x00, 0x00, 0x00, 0x00, 0x7e, 0x07, 0x69, 0xbf, 0x24, 0x59, 0x84, 0xbf,
  0x00, 0x00, 0x00, 0x00, 0x00, 0x00, 0x00, 0x00, 0xff, 0xc7, 0xbe, 0xbf,
  0x33, 0xbb, 0xc3, 0x3f, 0xcd, 0x33, 0x7d, 0xbc, 0x80, 0x3c, 0x6f, 0x3f,
  0xa2, 0xa2, 0x6e, 0x3d, 0x04, 0x6d, 0xc5, 0x3f, 0xda, 0x66, 0xfe, 0x3d,
  0x00, 0x00, 0x00, 0x00, 0xaa, 0x46, 0x64, 0xbf, 0xeb, 0xe2, 0x9c, 0xbf,
  0xbf, 0x0c, 0x66, 0x3e, 0x2a, 0xa3, 0x82, 0xbd, 0x3f, 0xbf, 0x4a, 0x3f,
  0x00, 0x00, 0x00, 0x00, 0x7f, 0x11, 0x95, 0x3c, 0x00, 0x00, 0x00, 0x00,
  0xa8, 0x5e, 0xf1, 0x3f, 0x51, 0x46, 0x48, 0x3d, 0x00, 0x00, 0x00, 0x00,
  0x7a, 0x6b, 0x8b, 0xbf, 0xa2, 0x64, 0xb0, 0x3c, 0xe7, 0xcd, 0x45, 0x3e,
  0x00, 0x00, 0x00, 0x00, 0x35, 0xee, 0x8e, 0xbf, 0x24, 0x1d, 0xa9, 0xbb,
  0x39, 0xc3, 0xd1, 0xbe, 0x29, 0x8e, 0x90, 0x3e, 0x39, 0x96, 0xb8, 0x3e,
  0x81, 0xae, 0x81, 0xbf, 0x15, 0x3f, 0xf0, 0xbc, 0xc4, 0x66, 0xfa, 0xbe,
  0x10, 0x0e, 0x66, 0xbc, 0x6d, 0x27, 0xf7, 0xbb, 0x5e, 0xf7, 0xff, 0xff,
  0x04, 0x00, 0x00, 0x00, 0x00, 0x08, 0x00, 0x00, 0x42, 0x12, 0x7d, 0xbd,
  0x23, 0x38, 0xb8, 0x3d, 0xa1, 0x0f, 0x43, 0xbd, 0x70, 0x4d, 0x4c, 0x3d,
  0x2d, 0xbd, 0x0f, 0xbe, 0x2c, 0xd0, 0x10, 0x3f, 0xe5, 0x15, 0xeb, 0xbe,
  0x1d, 0x95, 0x06, 0xbe, 0x9a, 0x44, 0x77, 0xbe, 0x00, 0x72, 0x51, 0x3e,
  0xa8, 0x2a, 0x0d, 0xbe, 0x85, 0xb8, 0xfb, 0x3d, 0x73, 0xaa, 0x9e, 0x3e,
  0x5b, 0x86, 0xcc, 0x3e, 0xa9, 0x57, 0x0d, 0xbe, 0x07, 0x08, 0xec, 0xbe,
  0x32, 0x06, 0xcf, 0xbd, 0x00, 0x56, 0x5d, 0x3c, 0xb3, 0x2d, 0x14, 0xbe,
  0xf0, 0x32, 0xee, 0xbd, 0x40, 0xfd, 0x23, 0xbe, 0x92, 0x9f, 0x4f, 0x3e,
  0xf3, 0x59, 0x0a, 0xbe, 0x4c, 0x2b, 0x16, 0x3e, 0xb3, 0x59, 0x1a, 0x3d,
  0xae, 0x76, 0x9e, 0x3d, 0x3c, 0x71, 0x47, 0x3e, 0x30, 0x9b, 0xf9, 0xbd,
  0xc1, 0x67, 0x6d, 0x3e, 0x1f, 0x8f, 0xf1, 0x3e, 0x92, 0x3e, 0xec, 0x3d,
  0x78, 0x19, 0xd8, 0x3d, 0xc3, 0x61, 0x0b, 0x3e, 0x70, 0xb7, 0x88, 0xbd,
  0x25, 0xe6, 0x70, 0x3b, 0xc7, 0xa2, 0x62, 0xbc, 0x73, 0xca, 0x82, 0xbe,
  0x49, 0x92, 0x79, 0xbd, 0xcd, 0xc6, 0xf9, 0x3e, 0x0b, 0x2c, 0xc5, 0xbd,
  0xc0, 0x38, 0xf7, 0xbd, 0xfe, 0x0e, 0x31, 0x3e, 0xa1, 0x02, 0x2e, 0xbe,
  0xfc, 0xbd, 0x5e, 0x3e, 0x4e, 0x44, 0x65, 0x3e, 0x27, 0x10, 0x2c, 0xbf,
  0x30, 0x08, 0x36, 0xbf, 0xfc, 0x7b, 0x90, 0xbd, 0x05, 0x18, 0x36, 0x3e,
  0x4e, 0x11, 0x23, 0xbe, 0x24, 0xaf, 0x22, 0x3e, 0x45, 0x5f, 0x3c, 0x3d,
  0x49, 0x6b, 0x89, 0xbe, 0x2d, 0xbb, 0x1a, 0xbe, 0x9e, 0xbe, 0x92, 0x3e,
  0x2b, 0x0d, 0x32, 0x3e, 0xf3, 0x53, 0x25, 0xbd, 0xaf, 0xbf, 0x55, 0xbe,
  0x29, 0x42, 0x5e, 0x3e, 0x21, 0x1f, 0x64, 0x3e, 0x07, 0x24, 0xeb, 0xbe,
  0xf8, 0x5a, 0xa4, 0x3d, 0x7e, 0x8f, 0xb9, 0xbd, 0x0d, 0xbb, 0x2e, 0x3d,
  0xfc, 0x54, 0x3d, 0xbd, 0xfa, 0x98, 0x95, 0xbd, 0x7a, 0xbc, 0x38, 0xbe,
  0x30, 0xf2, 0xea, 0x3c, 0xa0, 0xf1, 0x0a, 0x3c, 0x80, 0xc1, 0xc3, 0xbb,
  0x5a, 0xe6, 0x84, 0xbd, 0xe4, 0x9d, 0x8f, 0xbe, 0xf5, 0x85, 0x74, 0xbe,
  0xbe, 0xa4, 0xc7, 0xbd, 0xc3, 0xc8, 0x05, 0xbe, 0xa6, 0xc1, 0x95, 0xbd,
  0xd4, 0x2a, 0xc8, 0x3d, 0xb4, 0x65, 0x14, 0x3e, 0xe0, 0x5c, 0x2b, 0x3d,
  0xdb, 0x9a, 0x19, 0xbe, 0x47, 0x77, 0x91, 0xbd, 0x12, 0xbe, 0x97, 0x3e,
  0xf5, 0x66, 0x83, 0xbe, 0xd2, 0x15, 0xe4, 0x3d, 0x48, 0x0e, 0xeb, 0x3d,
  0x0a, 0xb0, 0x0c, 0x3e, 0x69, 0x25, 0x8c, 0xbd, 0x22, 0x92, 0xba, 0xbe,
  0x8c, 0x5a, 0x81, 0xbc, 0x21, 0x95, 0x58, 0x3e, 0xbb, 0x58, 0xe9, 0x3d,
  0xa8, 0xaf, 0x31, 0xbd, 0x0c, 0xb8, 0x84, 0xbd, 0x37, 0x4c, 0x59, 0xbd,
  0x67, 0x67, 0x0c, 0xbe, 0x77, 0x5d, 0x93, 0xbe, 0x0f, 0xf8, 0xa8, 0x3c,
  0xd5, 0xa6, 0x81, 0x3d, 0xfb, 0x8a, 0x37, 0xbc, 0x88, 0xfd, 0x92, 0x3d,
  0x7d, 0x5b, 0xdf, 0xbe, 0x4c, 0xde, 0x05, 0x3d, 0x56, 0x97, 0x18, 0xbf,
  0xe5, 0xe6, 0x11, 0xbf, 0xda, 0x4b, 0x2a, 0xbe, 0xad, 0x36, 0x0e, 0x3d,
  0x50, 0x67, 0xc6, 0x3d, 0xd0, 0xcc, 0x1d, 0x3e, 0x93, 0x93, 0x7f, 0xbe,
  0x2b, 0x1f, 0x44, 0x3d, 0xb8, 0x24, 0x36, 0x3f, 0x4b, 0xaa, 0x99, 0x3e,
  0xae, 0x32, 0x6b, 0x3e, 0x70, 0x05, 0x4d, 0xbe, 0xa4, 0x76, 0xc6, 0xbd,
  0xe9, 0x80, 0x66, 0x3e, 0x23, 0x75, 0xba, 0x3d, 0x45, 0x25, 0x67, 0x3e,
  0xd7, 0x95, 0x53, 0xbe, 0x93, 0x7f, 0x8e, 0xbe, 0x83, 0xaa, 0x83, 0xbd,
  0x71, 0xe2, 0x6a, 0x3e, 0x78, 0x34, 0x15, 0xbe, 0x6a, 0x5c, 0x28, 0x3d,
  0x20, 0xcb, 0x70, 0x3e, 0xe1, 0x9a, 0x06, 0x3f, 0xcb, 0xbd, 0x59, 0x3f,
  0x56, 0x5a, 0x89, 0x3c, 0x7b, 0x93, 0x87, 0x3e, 0x03, 0xe5, 0x3c, 0x3e,
  0xf8, 0x75, 0x63, 0xbe, 0xd6, 0x2b, 0xf4, 0xbd, 0x26, 0xc6, 0x0b, 0x3d,
  0xb3, 0xab, 0x26, 0x3d, 0x44, 0xc6, 0x28, 0xbf, 0x60, 0xfc, 0xc2, 0xbe,
  0xb9, 0x52, 0x60, 0x3e, 0x9b, 0x86, 0x18, 0x3d, 0x52, 0x02, 0x2d, 0x3a,
  0x29, 0x24, 0x8c, 0xbe, 0x95, 0xf6, 0xf6, 0xbd, 0x78, 0xfb, 0x0a, 0x3d,
  0x15, 0xba, 0x2b, 0x3e, 0x3d, 0x3d, 0x3c, 0x3e, 0x56, 0xc9, 0x89, 0xbe,
  0xb2, 0x09, 0xfa, 0x3d, 0x5b, 0x25, 0x45, 0x3e, 0xe6, 0x7a, 0xa1, 0x3d,
  0x5c, 0x96, 0xab, 0x3d, 0x5d, 0x95, 0xb7, 0xbe, 0x1a, 0x56, 0xeb, 0xbe,
  0x9e, 0x1c, 0xac, 0xbd, 0xe1, 0x50, 0x37, 0xbe, 0x42, 0x5a, 0xda, 0xbc,
  0x23, 0xa1, 0x28, 0x3d, 0xe3, 0x25, 0x8b, 0xbc, 0x04, 0x14, 0xcb, 0x3d,
  0x51, 0x68, 0x6b, 0xbe, 0xf1, 0xdf, 0xa7, 0xbc, 0x8c, 0x46, 0x71, 0x3e,
  0x6f, 0x20, 0x31, 0xbe, 0xfe, 0xe7, 0x12, 0xbe, 0xe0, 0x0c, 0x5e, 0x3e,
  0x1b, 0x49, 0x15, 0x3d, 0xb0, 0x4d, 0x5b, 0xbe, 0x17, 0xa7, 0x8c, 0xbe,
  0xdd, 0xad, 0xe8, 0xbe, 0xc8, 0xe4, 0x00, 0x3e, 0x09, 0x1b, 0x6f, 0xbe,
  0x08, 0xec, 0x10, 0xbd, 0x60, 0x29, 0xf6, 0xbc, 0xe0, 0xc1, 0x31, 0xbc,
  0x28, 0xa0, 0x21, 0x3d, 0xc4, 0x0a, 0xd2, 0x3d, 0x48, 0xc5, 0xe5, 0x3d,
  0xd8, 0x27, 0x16, 0xbd, 0x1b, 0xe4, 0xbf, 0xbd, 0x74, 0x5b, 0xd3, 0xbd,
  0xb9, 0x73, 0x60, 0x3d, 0x27, 0x20, 0x80, 0x3d, 0x5f, 0xf2, 0xc1, 0xbd,
  0xfb, 0x06, 0xca, 0xbc, 0x1c, 0x37, 0xb9, 0xbd, 0x0b, 0x20, 0x48, 0x3e,
  0x12, 0xaf, 0x57, 0xbe, 0xbe, 0x6f, 0xf7, 0xbd, 0x17, 0x56, 0x2e, 0x3d,
  0x2e, 0x48, 0x6a, 0x3e, 0xaa, 0x71, 0x80, 0xbd, 0xc1, 0x85, 0x94, 0xbe,
  0xc0, 0x17, 0x3f, 0xbd, 0xd2, 0x21, 0xa5, 0x3e, 0x32, 0xa8, 0x3e, 0xbe,
  0xfb, 0x4e, 0x15, 0xbe, 0xc1, 0xb7, 0x83, 0xbb, 0xcb, 0x95, 0xaa, 0x3e,
  0xd8, 0x1f, 0xfb, 0x3e, 0x06, 0xfd, 0x90, 0xbe, 0x8e, 0x61, 0x20, 0x3e,
  0xde, 0x43, 0x6e, 0x3e, 0xb6, 0x7e, 0x65, 0xbe, 0x3f, 0x60, 0xb3, 0xbc,
  0xbf, 0x1c, 0x43, 0x3c, 0x8e, 0xa8, 0x38, 0x3b, 0xbb, 0x76, 0x4d, 0x3e,
  0x77, 0xb9, 0x32, 0xb8, 0xb0, 0x11, 0x92, 0x3d, 0xf0, 0x67, 0xa1, 0x3d,
  0x8c, 0x10, 0x50, 0xbe, 0x2c, 0xe1, 0x89, 0xbd, 0xb0, 0xa2, 0x63, 0xbe,
  0x80, 0xd2, 0x1e, 0x3c, 0x00, 0x0e, 0x7e, 0xba, 0x20, 0x98, 0xd3, 0x3d,
  0x0c, 0xb0, 0x87, 0x3e, 0xe6, 0x3a, 0xd6, 0xbd, 0xee, 0x59, 0x0f, 0x3e,
  0x00, 0xaa, 0x6e, 0x3d, 0xf5, 0x46, 0x25, 0x3e, 0xfa, 0x26, 0x4e, 0x3e,
  0xcc, 0xfc, 0x46, 0x3e, 0x77, 0x7f, 0x8e, 0x3d, 0xeb, 0x6a, 0x25, 0x3e,
  0xcd, 0x23, 0x34, 0x3e, 0xa2, 0xc4, 0xd3, 0x3c, 0xb3, 0x53, 0xef, 0x3d,
  0x83, 0x4a, 0x22, 0xbd, 0x01, 0x29, 0x65, 0xbe, 0x75, 0x30, 0x8e, 0x3c,
  0x16, 0x7f, 0x78, 0xbe, 0x5f, 0xee, 0xc0, 0xbe, 0x98, 0xbe, 0xcc, 0x3d,
  0x07, 0x47, 0x93, 0xbe, 0xc6, 0x26, 0x7d, 0xbe, 0x30, 0xca, 0x56, 0xbe,
  0x10, 0x61, 0x65, 0x3e, 0x28, 0xa4, 0xb5, 0x3d, 0x56, 0x9d, 0x09, 0x3e,
  0xd0, 0x84, 0x78, 0x3e, 0xc8, 0xb9, 0x02, 0x3e, 0x8a, 0xe6, 0x94, 0xbd,
  0x7e, 0xec, 0xaf, 0xbd, 0xf8, 0xa5, 0x5e, 0xbd, 0x6d, 0x33, 0x87, 0xbe,
  0xc0, 0xde, 0x9e, 0x3b, 0x64, 0x2f, 0x42, 0xbe, 0xba, 0x08, 0x91, 0xbe,
  0xa8, 0xea, 0x57, 0x3d, 0xb6, 0x75, 0xdb, 0xbd, 0x6f, 0x14, 0x3c, 0x3e,
  0x53, 0xe9, 0x01, 0xbe, 0x31, 0xe6, 0x05, 0x3e, 0xa9, 0x78, 0x1b, 0xbe,
  0x0c, 0xf9, 0x51, 0xbd, 0xf7, 0xcf, 0xa3, 0xbe, 0x93, 0x17, 0xd5, 0xbd,
  0x7c, 0x25, 0x5a, 0x3e, 0xf3, 0x9d, 0x6b, 0xbe, 0x26, 0x73, 0x52, 0x3e,
  0x83, 0x0d, 0x29, 0xbd, 0x38, 0x69, 0x54, 0xbd, 0xc9, 0x6a, 0xc4, 0x3e,
  0x43, 0xd0, 0xc7, 0x3e, 0xde, 0xbd, 0x11, 0x3d, 0xf4, 0xd0, 0xa2, 0xbd,
  0x9f, 0x59, 0xd1, 0x3d, 0xe1, 0xf5, 0x0d, 0xbe, 0xee, 0x9c, 0xfb, 0xbd,
  0xc5, 0x24, 0x1b, 0xbd, 0x73, 0x37, 0x72, 0xbd, 0xac, 0x8e, 0x80, 0xbe,
  0x0e, 0xc9, 0x64, 0x3e, 0x4f, 0x7e, 0xfe, 0xbd, 0xb8, 0xa1, 0x9a, 0x3d,
  0x76, 0xcb, 0x8f, 0xbc, 0x49, 0x21, 0xf3, 0x3d, 0x26, 0x5c, 0x37, 0x3d,
  0x79, 0x4b, 0x22, 0x3e, 0xa4, 0x43, 0x28, 0x3f, 0x6f, 0xf5, 0x99, 0x3e,
  0x04, 0x90, 0x33, 0xbe, 0xbc, 0xcc, 0x66, 0x3e, 0x39, 0xa9, 0x4f, 0x3e,
  0xa7, 0xf5, 0xfc, 0xba, 0xdc, 0xc7, 0xbe, 0xbe, 0x2c, 0x57, 0xa8, 0x3e,
  0x70, 0x77, 0x1c, 0xbe, 0xdb, 0x14, 0xb4, 0xbe, 0x7f, 0xbe, 0x78, 0x3e,
  0xaf, 0xf7, 0x2b, 0xbb, 0xd0, 0xe5, 0x5b, 0xbe, 0xeb, 0x5b, 0x0e, 0x3d,
  0xf9, 0xe8, 0x7a, 0xbd, 0xdf, 0x81, 0xdf, 0x3e, 0x11, 0xc9, 0xf8, 0x3d,
  0x17, 0xd6, 0xfd, 0xbd, 0x89, 0x74, 0x28, 0xbe, 0x77, 0x5f, 0x6e, 0x3d,
  0xc2, 0x8c, 0x05, 0x3e, 0xfd, 0x78, 0xd9, 0xbd, 0xa9, 0x9e, 0x03, 0xbe,
  0x33, 0x6f, 0xae, 0x3e, 0x9a, 0x88, 0x5f, 0x3d, 0x68, 0x52, 0x99, 0x3d,
  0x18, 0x1a, 0x06, 0xbe, 0x80, 0x11, 0x81, 0x3d, 0xba, 0xf4, 0x50, 0xbe,
  0x74, 0xc0, 0x85, 0xbe, 0xb2, 0x7b, 0xdf, 0xbd, 0x5a, 0x60, 0x37, 0x3e,
  0xa0, 0xe1, 0xd5, 0x3d, 0x20, 0x1a, 0x7f, 0x3e, 0xb9, 0xa7, 0x07, 0x3e,
  0x34, 0xd7, 0xf0, 0xbd, 0x9c, 0xa1, 0x9f, 0x3d, 0xce, 0x8c, 0xc7, 0xbb,
  0xa0, 0xc1, 0xf3, 0x3d, 0xe4, 0x20, 0x11, 0x3e, 0xc8, 0x4c, 0x05, 0x3f,
  0x45, 0x95, 0x8e, 0x3e, 0x64, 0xf9, 0x7c, 0xbe, 0xbc, 0xa5, 0x2a, 0x3e,
  0xe9, 0x6d, 0x90, 0x3e, 0xea, 0xae, 0x6d, 0xbe, 0xa9, 0xbb, 0x8e, 0x3d,
  0x32, 0x48, 0x11, 0xbf, 0x01, 0x23, 0xd0, 0xbe, 0xfb, 0xef, 0x00, 0x3d,
  0x5c, 0xff, 0x2c, 0xbe, 0x76, 0x5c, 0x07, 0x3e, 0x9b, 0x0f, 0x2d, 0x3e,
  0xf2, 0x7a, 0x6f, 0x3e, 0xee, 0x84, 0xa6, 0x3d, 0x7d, 0x52, 0x20, 0x3f,
  0x76, 0xf2, 0x23, 0x3e, 0x50, 0xb5, 0x84, 0xbc, 0x5f, 0x8e, 0x9d, 0x3c,
  0xd0, 0x8e, 0x83, 0xbe, 0x7c, 0x7c, 0x8a, 0x3e, 0xdb, 0xc5, 0xfa, 0xbe,
  0x9c, 0x6a, 0xc8, 0x3d, 0x77, 0x3e, 0xcb, 0x3e, 0xa8, 0x61, 0x00, 0x3f,
  0x00, 0x0a, 0x95, 0xbe, 0xe5, 0x83, 0x11, 0x3e, 0x7c, 0x36, 0x32, 0x3d,
  0x59, 0x66, 0x13, 0x3e, 0x94, 0xa0, 0x76, 0xbe, 0x49, 0x4e, 0x62, 0xbe,
  0xec, 0x88, 0x5d, 0xbf, 0xfa, 0xd6, 0xc7, 0xbe, 0x94, 0x0a, 0x84, 0x3e,
  0x64, 0x4d, 0x20, 0xbe, 0x7c, 0x52, 0xf8, 0xbd, 0x1c, 0xb8, 0x4c, 0xbd,
  0x2e, 0x8b, 0xe5, 0xbd, 0x3e, 0x61, 0xa5, 0xbd, 0x34, 0x75, 0x49, 0xbe,
  0xf0, 0x40, 0xf4, 0x3c, 0x18, 0x43, 0xda, 0xbd, 0xce, 0xd5, 0x82, 0x3c,
  0xac, 0xf1, 0x6f, 0xbe, 0x96, 0xd5, 0x3b, 0x3e, 0xac, 0xec, 0xf6, 0x3d,
  0x3c, 0x09, 0xa9, 0xbe, 0x3a, 0x56, 0x9c, 0xbe, 0xd8, 0xe1, 0xf7, 0xbe,
  0x07, 0xb5, 0x52, 0xbe, 0x26, 0xb0, 0x82, 0xbd, 0x10, 0x04, 0x39, 0xbe,
  0x39, 0x2c, 0x33, 0xbe, 0x40, 0xae, 0xc4, 0x3d, 0xcc, 0x5c, 0x3b, 0x3e,
  0x6a, 0x23, 0x12, 0xbe, 0xaa, 0xdc, 0x6e, 0xbe, 0x28, 0x09, 0x8c, 0xbd,
  0x4a, 0x31, 0x34, 0xbe, 0xde, 0x9b, 0xa4, 0x3e, 0x5c, 0x62, 0xd4, 0x3d,
  0x70, 0xf2, 0x52, 0xbe, 0xed, 0xb5, 0x2f, 0xbc, 0x0e, 0x6a, 0xbc, 0x3e,
  0x48, 0xa8, 0xe8, 0x3e, 0xd8, 0x57, 0x9d, 0x3e, 0x93, 0xf7, 0x81, 0xbe,
  0x59, 0xfe, 0x8a, 0xbc, 0x90, 0xd6, 0x56, 0xbd, 0x1c, 0xe6, 0x80, 0x3e,
  0x51, 0x2d, 0xde, 0xbd, 0x70, 0x52, 0x1a, 0x3e, 0x9d, 0x38, 0x8f, 0xbb,
  0xbf, 0xc0, 0x67, 0x3b, 0x02, 0x27, 0xca, 0xbd, 0x10, 0x0f, 0xac, 0xbd,
  0xb6, 0xde, 0x5d, 0xbe, 0xe0, 0xc8, 0xf4, 0xbc, 0x70, 0xee, 0x02, 0xbd,
  0x38, 0x3e, 0x6e, 0x3e, 0xe0, 0x75, 0xc7, 0x3c, 0x30, 0x73, 0x58, 0x3e,
  0xfd, 0xf5, 0x0a, 0x3d, 0xfe, 0xc4, 0x9e, 0x3d, 0xaa, 0xd8, 0xd3, 0x3d,
  0x6d, 0x6a, 0x61, 0xbe, 0x97, 0xf5, 0x80, 0x3e, 0x54, 0xfb, 0x1c, 0xbf,
  0xa0, 0xed, 0x43, 0xbf, 0x90, 0x32, 0x9d, 0xbe, 0x3a, 0x29, 0x2a, 0x3d,
  0xf7, 0x1a, 0x03, 0xbd, 0xc3, 0x50, 0xc5, 0x3d, 0xce, 0x20, 0x9a, 0xbe,
  0x92, 0xfa, 0x09, 0x3e, 0x79, 0x8d, 0xbd, 0x3e, 0x82, 0x56, 0xc0, 0x3e,
  0x88, 0x82, 0x67, 0x3e, 0xd0, 0x8a, 0x48, 0xbe, 0xfa, 0x65, 0x01, 0x3e,
  0x5e, 0x88, 0x6e, 0x3d, 0xab, 0x6e, 0x09, 0x3d, 0x05, 0xed, 0xac, 0x3c,
  0x4b, 0x27, 0x23, 0x3e, 0x5b, 0x54, 0x05, 0xbe, 0x9f, 0x35, 0x7f, 0xbe,
  0x09, 0x4f, 0x71, 0xbe, 0xca, 0x77, 0x06, 0xbe, 0x80, 0x3c, 0xe3, 0x3c,
  0x00, 0xb4, 0xc4, 0x3a, 0xe0, 0x18, 0x8f, 0xbd, 0x81, 0xb8, 0x05, 0xbe,
  0x04, 0x05, 0xb3, 0xbd, 0x78, 0x67, 0x02, 0x3d, 0x70, 0xec, 0x2f, 0x3e,
  0x96, 0x1b, 0x89, 0xbe, 0x05, 0x1a, 0x35, 0x3e, 0x5b, 0xe7, 0x26, 0x3e,
  0xb2, 0x0c, 0x3c, 0x3e, 0xdd, 0xe7, 0x26, 0xbe, 0xf0, 0x04, 0x1c, 0xbf,
  0xad, 0x18, 0xf6, 0xbd, 0x11, 0xb7, 0x40, 0x3e, 0xe4, 0xe5, 0x32, 0xbe,
  0x53, 0x48, 0x61, 0xbe, 0x6a, 0x43, 0x81, 0x3c, 0xd6, 0xba, 0xb1, 0xbd,
  0x4c, 0x4c, 0x3b, 0xbd, 0x94, 0x79, 0x89, 0xbd, 0x13, 0xfb, 0x45, 0x3e,
  0x40, 0xf9, 0x22, 0xbd, 0x72, 0xa8, 0xa3, 0xbd, 0x82, 0x79, 0x66, 0x3e,
  0x57, 0x3f, 0x4d, 0xbe, 0x39, 0x1d, 0x7c, 0x3e, 0x57, 0xac, 0xfd, 0x3e,
  0xb8, 0xa4, 0x0d, 0x3f, 0x9a, 0xa6, 0x31, 0xbe, 0x4e, 0xd1, 0xee, 0xbc,
  0x51, 0xbe, 0x73, 0x3e, 0x64, 0x66, 0xf0, 0xbd, 0xda, 0xb6, 0x08, 0x3e,
  0xbf, 0xc2, 0xba, 0x3d, 0x3c, 0xa9, 0xa6, 0x3c, 0x9d, 0x2a, 0xda, 0x3e,
  0x08, 0x51, 0xad, 0xbd, 0x07, 0x50, 0xe6, 0x3d, 0x5e, 0x22, 0xb7, 0x3c,
  0xda, 0xf6, 0xa0, 0xbd, 0xfc, 0x86, 0x25, 0xbe, 0x0d, 0x64, 0x32, 0x3d,
  0x91, 0xc7, 0x05, 0xbe, 0x4c, 0xbb, 0x54, 0xbe, 0x80, 0xfc, 0x8b, 0xbe,
  0xe5, 0xd0, 0xe8, 0x3d, 0xb9, 0xfd, 0x63, 0x3e, 0x1e, 0x82, 0x5a, 0x3e,
  0x11, 0x56, 0x79, 0xbe, 0xd6, 0x7b, 0x88, 0x3d, 0x52, 0xa0, 0x6c, 0x3e,
  0x23, 0x88, 0x99, 0x3e, 0x4b, 0x6c, 0xba, 0xbe, 0xe1, 0x4e, 0x3e, 0xbd,
  0x6f, 0xb5, 0x8b, 0xbe, 0xfc, 0x5f, 0xdf, 0xb9, 0x24, 0xce, 0x45, 0xbe,
  0x6e, 0xb6, 0x4d, 0xbe, 0xa9, 0xde, 0xb1, 0xbd, 0x70, 0x09, 0x5c, 0x3e,
  0x16, 0xeb, 0x37, 0x3e, 0x7f, 0x03, 0x87, 0x3c, 0x62, 0xf8, 0x26, 0x3e,
  0x13, 0xc4, 0x83, 0xbe, 0x1c, 0x25, 0xd3, 0x3d, 0x26, 0x8e, 0xd0, 0x3e,
  0x01, 0x77, 0x15, 0xbf, 0x56, 0x9d, 0x33, 0xbf, 0x46, 0xc6, 0xd0, 0x3e,
  0x42, 0xd4, 0x1e, 0xbd, 0xbe, 0xf1, 0xd0, 0x3d, 0x91, 0x15, 0x35, 0xbe,
  0x2c, 0x1b, 0x2b, 0xbe, 0x37, 0xbd, 0x80, 0xbd, 0x47, 0x34, 0x33, 0x3e,
  0x6c, 0x15, 0x3a, 0xbe, 0x00, 0xe6, 0xdd, 0x3d, 0x90, 0x59, 0xf8, 0xbd,
  0xa0, 0x1a, 0xaf, 0x3d, 0x0b, 0xec, 0x93, 0xbe, 0x24, 0x04, 0x8f, 0xbe,
  0xee, 0xa9, 0x4c, 0xbe, 0xac, 0x21, 0x28, 0x3e, 0x0c, 0x83, 0x59, 0x3e,
  0x92, 0xdd, 0x29, 0xbe, 0xf0, 0xf8, 0xff, 0xff, 0xf4, 0xf8, 0xff, 0xff,
  0x0f, 0x00, 0x00, 0x00, 0x4d, 0x4c, 0x49, 0x52, 0x20, 0x43, 0x6f, 0x6e,
  0x76, 0x65, 0x72, 0x74, 0x65, 0x64, 0x2e, 0x00, 0x01, 0x00, 0x00, 0x00,
  0x14, 0x00, 0x00, 0x00, 0x00, 0x00, 0x0e, 0x00, 0x18, 0x00, 0x14, 0x00,
  0x10, 0x00, 0x0c, 0x00, 0x08, 0x00, 0x04, 0x00, 0x0e, 0x00, 0x00, 0x00,
  0x14, 0x00, 0x00, 0x00, 0x1c, 0x00, 0x00, 0x00, 0x30, 0x01, 0x00, 0x00,
  0x34, 0x01, 0x00, 0x00, 0x38, 0x01, 0x00, 0x00, 0x04, 0x00, 0x00, 0x00,
  0x6d, 0x61, 0x69, 0x6e, 0x00, 0x00, 0x00, 0x00, 0x04, 0x00, 0x00, 0x00,
  0xd8, 0x00, 0x00, 0x00, 0x84, 0x00, 0x00, 0x00, 0x50, 0x00, 0x00, 0x00,
  0x14, 0x00, 0x00, 0x00, 0x00, 0x00, 0x0e, 0x00, 0x1a, 0x00, 0x14, 0x00,
  0x10, 0x00, 0x0c, 0x00, 0x0b, 0x00, 0x04, 0x00, 0x0e, 0x00, 0x00, 0x00,
  0x1c, 0x00, 0x00, 0x00, 0x00, 0x00, 0x00, 0x09, 0x1c, 0x00, 0x00, 0x00,
  0x20, 0x00, 0x00, 0x00, 0x01, 0x00, 0x00, 0x00, 0x00, 0x00, 0x06, 0x00,
  0x08, 0x00, 0x04, 0x00, 0x06, 0x00, 0x00, 0x00, 0x00, 0x00, 0x80, 0x3f,
  0x01, 0x00, 0x00, 0x00, 0x0a, 0x00, 0x00, 0x00, 0x01, 0x00, 0x00, 0x00,
  0x09, 0x00, 0x00, 0x00, 0x8e, 0xff, 0xff, 0xff, 0x10, 0x00, 0x00, 0x00,
  0x00, 0x00, 0x00, 0x08, 0x0c, 0x00, 0x00, 0x00, 0x10, 0x00, 0x00, 0x00,
  0xb8, 0xf9, 0xff, 0xff, 0x01, 0x00, 0x00, 0x00, 0x09, 0x00, 0x00, 0x00,
  0x03, 0x00, 0x00, 0x00, 0x08, 0x00, 0x00, 0x00, 0x05, 0x00, 0x00, 0x00,
  0x04, 0x00, 0x00, 0x00, 0xbe, 0xff, 0xff, 0xff, 0x1c, 0x00, 0x00, 0x00,
  0x00, 0x00, 0x00, 0x08, 0x1c, 0x00, 0x00, 0x00, 0x20, 0x00, 0x00, 0x00,
  0x0c, 0x00, 0x08, 0x00, 0x07, 0x00, 0x00, 0x00, 0x00, 0x00, 0x06, 0x00,
  0x0c, 0x00, 0x00, 0x00, 0x00, 0x00, 0x01, 0x01, 0x01, 0x00, 0x00, 0x00,
  0x08, 0x00, 0x00, 0x00, 0x03, 0x00, 0x00, 0x00, 0x07, 0x00, 0x00, 0x00,
  0x06, 0x00, 0x00, 0x00, 0x03, 0x00, 0x00, 0x00, 0x00, 0x00, 0x0e, 0x00,
  0x16, 0x00, 0x00, 0x00, 0x10, 0x00, 0x0c, 0x00, 0x0b, 0x00, 0x04, 0x00,
  0x0e, 0x00, 0x00, 0x00, 0x18, 0x00, 0x00, 0x00, 0x00, 0x00, 0x00, 0x08,
  0x18, 0x00, 0x00, 0x00, 0x1c, 0x00, 0x00, 0x00, 0x00, 0x00, 0x06, 0x00,
  0x08, 0x00, 0x07, 0x00, 0x06, 0x00, 0x00, 0x00, 0x00, 0x00, 0x00, 0x01,
  0x01, 0x00, 0x00, 0x00, 0x07, 0x00, 0x00, 0x00, 0x03, 0x00, 0x00, 0x00,
  0x00, 0x00, 0x00, 0x00, 0x01, 0x00, 0x00, 0x00, 0x02, 0x00, 0x00, 0x00,
  0x01, 0x00, 0x00, 0x00, 0x0a, 0x00, 0x00, 0x00, 0x01, 0x00, 0x00, 0x00,
  0x00, 0x00, 0x00, 0x00, 0x0b, 0x00, 0x00, 0x00, 0x64, 0x05, 0x00, 0x00,
  0x0c, 0x05, 0x00, 0x00, 0xb8, 0x04, 0x00, 0x00, 0x7c, 0x04, 0x00, 0x00,
  0x40, 0x04, 0x00, 0x00, 0x00, 0x04, 0x00, 0x00, 0x1c, 0x02, 0x00, 0x00,
  0x74, 0x01, 0x00, 0x00, 0xdc, 0x00, 0x00, 0x00, 0x60, 0x00, 0x00, 0x00,
  0x04, 0x00, 0x00, 0x00, 0xde, 0xfa, 0xff, 0xff, 0x00, 0x00, 0x00, 0x01,
  0x14, 0x00, 0x00, 0x00, 0x1c, 0x00, 0x00, 0x00, 0x1c, 0x00, 0x00, 0x00,
  0x0b, 0x00, 0x00, 0x00, 0x34, 0x00, 0x00, 0x00, 0x02, 0x00, 0x00, 0x00,
  0xff, 0xff, 0xff, 0xff, 0x07, 0x00, 0x00, 0x00, 0xc8, 0xfa, 0xff, 0xff,
  0x1b, 0x00, 0x00, 0x00, 0x53, 0x74, 0x61, 0x74, 0x65, 0x66, 0x75, 0x6c,
  0x50, 0x61, 0x72, 0x74, 0x69, 0x74, 0x69, 0x6f, 0x6e, 0x65, 0x64, 0x43,
  0x61, 0x6c, 0x6c, 0x5f, 0x31, 0x3a, 0x30, 0x00, 0x02, 0x00, 0x00, 0x00,
  0x01, 0x00, 0x00, 0x00, 0x07, 0x00, 0x00, 0x00, 0x36, 0xfb, 0xff, 0xff,
  0x00, 0x00, 0x00, 0x01, 0x14, 0x00, 0x00, 0x00, 0x1c, 0x00, 0x00, 0x00,
  0x1c, 0x00, 0x00, 0x00, 0x0a, 0x00, 0x00, 0x00, 0x54, 0x00, 0x00, 0x00,
  0x02, 0x00, 0x00, 0x00, 0xff, 0xff, 0xff, 0xff, 0x07, 0x00, 0x00, 0x00,
  0x20, 0xfb, 0xff, 0xff, 0x38, 0x00, 0x00, 0x00, 0x73, 0x65, 0x71, 0x75,
  0x65, 0x6e, 0x74, 0x69, 0x61, 0x6c, 0x5f, 0x31, 0x2f, 0x64, 0x65, 0x6e,
  0x73, 0x65, 0x5f, 0x32, 0x5f, 0x31, 0x2f, 0x4d, 0x61, 0x74, 0x4d, 0x75,
  0x6c, 0x3b, 0x73, 0x65, 0x71, 0x75, 0x65, 0x6e, 0x74, 0x69, 0x61, 0x6c,
  0x5f, 0x31, 0x2f, 0x64, 0x65, 0x6e, 0x73, 0x65, 0x5f, 0x32, 0x5f, 0x31,
  0x2f, 0x41, 0x64, 0x64, 0x00, 0x00, 0x00, 0x00, 0x02, 0x00, 0x00, 0x00,
  0x01, 0x00, 0x00, 0x00, 0x07, 0x00, 0x00, 0x00, 0xae, 0xfb, 0xff, 0xff,
  0x00, 0x00, 0x00, 0x01, 0x14, 0x00, 0x00, 0x00, 0x1c, 0x00, 0x00, 0x00,
  0x1c, 0x00, 0x00, 0x00, 0x09, 0x00, 0x00, 0x00, 0x70, 0x00, 0x00, 0x00,
  0x02, 0x00, 0x00, 0x00, 0xff, 0xff, 0xff, 0xff, 0x20, 0x00, 0x00, 0x00,
  0x98, 0xfb, 0xff, 0xff, 0x54, 0x00, 0x00, 0x00, 0x73, 0x65, 0x71, 0x75,
  0x65, 0x6e, 0x74, 0x69, 0x61, 0x6c, 0x5f, 0x31, 0x2f, 0x64, 0x65, 0x6e,
  0x73, 0x65, 0x5f, 0x31, 0x5f, 0x32, 0x2f, 0x4d, 0x61, 0x74, 0x4d, 0x75,
  0x6c, 0x3b, 0x73, 0x65, 0x71, 0x75, 0x65, 0x6e, 0x74, 0x69, 0x61, 0x6c,
  0x5f, 0x31, 0x2f, 0x64, 0x65, 0x6e, 0x73, 0x65, 0x5f, 0x31, 0x5f, 0x32,
  0x2f, 0x52, 0x65, 0x6c, 0x75, 0x3b, 0x73, 0x65, 0x71, 0x75, 0x65, 0x6e,
  0x74, 0x69, 0x61, 0x6c, 0x5f, 0x31, 0x2f, 0x64, 0x65, 0x6e, 0x73, 0x65,
  0x5f, 0x31, 0x5f, 0x32, 0x2f, 0x41, 0x64, 0x64, 0x00, 0x00, 0x00, 0x00,
  0x02, 0x00, 0x00, 0x00, 0x01, 0x00, 0x00, 0x00, 0x20, 0x00, 0x00, 0x00,
  0x42, 0xfc, 0xff, 0xff, 0x00, 0x00, 0x00, 0x01, 0x14, 0x00, 0x00, 0x00,
  0x1c, 0x00, 0x00, 0x00, 0x1c, 0x00, 0x00, 0x00, 0x08, 0x00, 0x00, 0x00,
  0x68, 0x00, 0x00, 0x00, 0x02, 0x00, 0x00, 0x00, 0xff, 0xff, 0xff, 0xff,
  0x40, 0x00, 0x00, 0x00, 0x2c, 0xfc, 0xff, 0xff, 0x4e, 0x00, 0x00, 0x00,
  0x73, 0x65, 0x71, 0x75, 0x65, 0x6e, 0x74, 0x69, 0x61, 0x6c, 0x5f, 0x31,
  0x2f, 0x64, 0x65, 0x6e, 0x73, 0x65, 0x5f, 0x31, 0x2f, 0x4d, 0x61, 0x74,
  0x4d, 0x75, 0x6c, 0x3b, 0x73, 0x65, 0x71, 0x75, 0x65, 0x6e, 0x74, 0x69,
  0x61, 0x6c, 0x5f, 0x31, 0x2f, 0x64, 0x65, 0x6e, 0x73, 0x65, 0x5f, 0x31,
  0x2f, 0x52, 0x65, 0x6c, 0x75, 0x3b, 0x73, 0x65, 0x71, 0x75, 0x65, 0x6e,
  0x74, 0x69, 0x61, 0x6c, 0x5f, 0x31, 0x2f, 0x64, 0x65, 0x6e, 0x73, 0x65,
  0x5f, 0x31, 0x2f, 0x41, 0x64, 0x64, 0x00, 0x00, 0x02, 0x00, 0x00, 0x00,
  0x01, 0x00, 0x00, 0x00, 0x40, 0x00, 0x00, 0x00, 0x00, 0x00, 0x16, 0x00,
  0x1c, 0x00, 0x18, 0x00, 0x17, 0x00, 0x10, 0x00, 0x0c, 0x00, 0x08, 0x00,
  0x00, 0x00, 0x00, 0x00, 0x00, 0x00, 0x07, 0x00, 0x16, 0x00, 0x00, 0x00,
  0x00, 0x00, 0x00, 0x01, 0x20, 0x00, 0x00, 0x00, 0xb0, 0x01, 0x00, 0x00,
  0x07, 0x00, 0x00, 0x00, 0x00, 0x00, 0x00, 0x09, 0xbc, 0x01, 0x00, 0x00,
  0x0c, 0x00, 0x0c, 0x00, 0x00, 0x00, 0x00, 0x00, 0x08, 0x00, 0x04, 0x00,
  0x0c, 0x00, 0x00, 0x00, 0x08, 0x00, 0x00, 0x00, 0x08, 0x01, 0x00, 0x00,
  0x20, 0x00, 0x00, 0x00, 0x00, 0x00, 0x00, 0x00, 0x00, 0x00, 0x00, 0x00,
  0x00, 0x00, 0x00, 0x00, 0x00, 0x00, 0x00, 0x00, 0x00, 0x00, 0x00, 0x00,
  0x00, 0x00, 0x00, 0x00, 0x00, 0x00, 0x00, 0x00, 0x00, 0x00, 0x00, 0x00,
  0x00, 0x00, 0x00, 0x00, 0x00, 0x00, 0x00, 0x00, 0x00, 0x00, 0x00, 0x00,
  0x00, 0x00, 0x00, 0x00, 0x00, 0x00, 0x00, 0x00, 0x00, 0x00, 0x00, 0x00,
  0x00, 0x00, 0x00, 0x00, 0x00, 0x00, 0x00, 0x00, 0x00, 0x00, 0x00, 0x00,
  0x00, 0x00, 0x00, 0x00, 0x00, 0x00, 0x00, 0x00, 0x00, 0x00, 0x00, 0x00,
  0x00, 0x00, 0x00, 0x00, 0x00, 0x00, 0x00, 0x00, 0x00, 0x00, 0x00, 0x00,
  0x00, 0x00, 0x00, 0x00, 0x00, 0x00, 0x00, 0x00, 0x00, 0x00, 0x00, 0x00,
  0x00, 0x00, 0x00, 0x00, 0x00, 0x00, 0x00, 0x00, 0x00, 0x00, 0x00, 0x00,
  0x00, 0x00, 0x00, 0x00, 0x00, 0x00, 0x00, 0x00, 0x00, 0x00, 0x00, 0x00,
  0x00, 0x00, 0x00, 0x00, 0x00, 0x00, 0x00, 0x00, 0x00, 0x00, 0x00, 0x00,
  0x00, 0x00, 0x00, 0x00, 0x00, 0x00, 0x00, 0x00, 0x00, 0x00, 0x00, 0x00,
  0x00, 0x00, 0x00, 0x00, 0x00, 0x00, 0x00, 0x00, 0x00, 0x00, 0x00, 0x00,
  0x00, 0x00, 0x00, 0x00, 0x00, 0x00, 0x00, 0x00, 0x00, 0x00, 0x00, 0x00,
  0x00, 0x00, 0x00, 0x00, 0x00, 0x00, 0x00, 0x00, 0x00, 0x00, 0x00, 0x00,
  0x00, 0x00, 0x00, 0x00, 0x00, 0x00, 0x00, 0x00, 0x00, 0x00, 0x00, 0x00,
  0x00, 0x00, 0x00, 0x00, 0x00, 0x00, 0x00, 0x00, 0x00, 0x00, 0x00, 0x00,
  0x00, 0x00, 0x00, 0x00, 0x00, 0x00, 0x00, 0x00, 0x00, 0x00, 0x00, 0x00,
  0x00, 0x00, 0x00, 0x00, 0x00, 0x00, 0x00, 0x00, 0x00, 0x00, 0x00, 0x00,
  0x00, 0x00, 0x00, 0x00, 0x00, 0x00, 0x00, 0x00, 0x00, 0x00, 0x00, 0x00,
  0x00, 0x00, 0x00, 0x00, 0x00, 0x00, 0x00, 0x00, 0x20, 0x00, 0x00, 0x00,
  0xe6, 0x1e, 0x40, 0x3b, 0x79, 0xfc, 0x0d, 0x3b, 0x5b, 0x1d, 0x34, 0x3b,
  0xee, 0xbe, 0x12, 0x3b, 0xfe, 0xe4, 0x08, 0x3b, 0xf4, 0x93, 0x00, 0x3b,
  0xdf, 0x99, 0x5d, 0x3b, 0xe0, 0x4e, 0x24, 0x3b, 0x95, 0x56, 0x25, 0x3b,
  0x90, 0xd7, 0x0f, 0x3b, 0x0c, 0x7d, 0x32, 0x3b, 0x7b, 0x1d, 0x51, 0x3b,
  0x2f, 0x09, 0x09, 0x3b, 0xb6, 0x54, 0x29, 0x3b, 0x7d, 0x09, 0x0a, 0x3b,
  0x59, 0xff, 0x1e, 0x3b, 0x0e, 0x70, 0x0b, 0x3b, 0x20, 0x5b, 0x10, 0x3b,
  0x53, 0x88, 0x00, 0x3b, 0x8e, 0x3e, 0x0e, 0x3b, 0x0e, 0x6e, 0x11, 0x3b,
  0x77, 0x27, 0x10, 0x3b, 0xcb, 0x71, 0x06, 0x3b, 0x59, 0x81, 0x3f, 0x3b,
  0x66, 0xf6, 0x1b, 0x3b, 0x23, 0x45, 0x1c, 0x3b, 0xc8, 0xad, 0xfa, 0x3a,
  0xe8, 0xe9, 0x1b, 0x3b, 0x7b, 0x92, 0x0f, 0x3b, 0xa1, 0x93, 0x45, 0x3b,
  0x71, 0xa8, 0xfe, 0x3a, 0xe8, 0x75, 0xff, 0x3a, 0x11, 0x00, 0x00, 0x00,
  0x74, 0x66, 0x6c, 0x2e, 0x70, 0x73, 0x65, 0x75, 0x64, 0x6f, 0x5f, 0x71,
  0x63, 0x6f, 0x6e, 0x73, 0x74, 0x00, 0x00, 0x00, 0x02, 0x00, 0x00, 0x00,
  0x20, 0x00, 0x00, 0x00, 0x40, 0x00, 0x00, 0x00, 0x1a, 0xff, 0xff, 0xff,
  0x00, 0x00, 0x00, 0x01, 0x10, 0x00, 0x00, 0x00, 0x10, 0x00, 0x00, 0x00,
  0x06, 0x00, 0x00, 0x00, 0x1c, 0x00, 0x00, 0x00, 0xa0, 0xfe, 0xff, 0xff,
  0x0f, 0x00, 0x00, 0x00, 0x61, 0x72, 0x69, 0x74, 0x68, 0x2e, 0x63, 0x6f,
  0x6e, 0x73, 0x74, 0x61, 0x6e, 0x74, 0x34, 0x00, 0x02, 0x00, 0x00, 0x00,
  0x07, 0x00, 0x00, 0x00, 0x20, 0x00, 0x00, 0x00, 0x56, 0xff, 0xff, 0xff,
  0x00, 0x00, 0x00, 0x01, 0x10, 0x00, 0x00, 0x00, 0x10, 0x00, 0x00, 0x00,
  0x05, 0x00, 0x00, 0x00, 0x1c, 0x00, 0x00, 0x00, 0xdc, 0xfe, 0xff, 0xff,
  0x0f, 0x00, 0x00, 0x00, 0x61, 0x72, 0x69, 0x74, 0x68, 0x2e, 0x63, 0x6f,
  0x6e, 0x73, 0x74, 0x61, 0x6e, 0x74, 0x33, 0x00, 0x01, 0x00, 0x00, 0x00,
  0x07, 0x00, 0x00, 0x00, 0x8e, 0xff, 0xff, 0xff, 0x00, 0x00, 0x00, 0x01,
  0x10, 0x00, 0x00, 0x00, 0x10, 0x00, 0x00, 0x00, 0x04, 0x00, 0x00, 0x00,
  0x1c, 0x00, 0x00, 0x00, 0x14, 0xff, 0xff, 0xff, 0x0f, 0x00, 0x00, 0x00,
  0x61, 0x72, 0x69, 0x74, 0x68, 0x2e, 0x63, 0x6f, 0x6e, 0x73, 0x74, 0x61,
  0x6e, 0x74, 0x32, 0x00, 0x01, 0x00, 0x00, 0x00, 0x20, 0x00, 0x00, 0x00,
  0xc6, 0xff, 0xff, 0xff, 0x00, 0x00, 0x00, 0x01, 0x10, 0x00, 0x00, 0x00,
  0x10, 0x00, 0x00, 0x00, 0x03, 0x00, 0x00, 0x00, 0x1c, 0x00, 0x00, 0x00,
  0x4c, 0xff, 0xff, 0xff, 0x0f, 0x00, 0x00, 0x00, 0x61, 0x72, 0x69, 0x74,
  0x68, 0x2e, 0x63, 0x6f, 0x6e, 0x73, 0x74, 0x61, 0x6e, 0x74, 0x31, 0x00,
  0x01, 0x00, 0x00, 0x00, 0x40, 0x00, 0x00, 0x00, 0x00, 0x00, 0x16, 0x00,
  0x18, 0x00, 0x14, 0x00, 0x00, 0x00, 0x10, 0x00, 0x0c, 0x00, 0x08, 0x00,
  0x00, 0x00, 0x00, 0x00, 0x00, 0x00, 0x07, 0x00, 0x16, 0x00, 0x00, 0x00,
  0x00, 0x00, 0x00, 0x01, 0x10, 0x00, 0x00, 0x00, 0x10, 0x00, 0x00, 0x00,
  0x02, 0x00, 0x00, 0x00, 0x1c, 0x00, 0x00, 0x00, 0x9c, 0xff, 0xff, 0xff,
  0x0e, 0x00, 0x00, 0x00, 0x61, 0x72, 0x69, 0x74, 0x68, 0x2e, 0x63, 0x6f,
  0x6e, 0x73, 0x74, 0x61, 0x6e, 0x74, 0x00, 0x00, 0x02, 0x00, 0x00, 0x00,
  0x40, 0x00, 0x00, 0x00, 0x08, 0x00, 0x00, 0x00, 0x00, 0x00, 0x16, 0x00,
  0x1c, 0x00, 0x18, 0x00, 0x00, 0x00, 0x14, 0x00, 0x10, 0x00, 0x0c, 0x00,
  0x00, 0x00, 0x00, 0x00, 0x08, 0x00, 0x07, 0x00, 0x16, 0x00, 0x00, 0x00,
  0x00, 0x00, 0x00, 0x01, 0x14, 0x00, 0x00, 0x00, 0x20, 0x00, 0x00, 0x00,
  0x20, 0x00, 0x00, 0x00, 0x01, 0x00, 0x00, 0x00, 0x3c, 0x00, 0x00, 0x00,
  0x02, 0x00, 0x00, 0x00, 0xff, 0xff, 0xff, 0xff, 0x08, 0x00, 0x00, 0x00,
  0x04, 0x00, 0x04, 0x00, 0x04, 0x00, 0x00, 0x00, 0x1e, 0x00, 0x00, 0x00,
  0x73, 0x65, 0x72, 0x76, 0x69, 0x6e, 0x67, 0x5f, 0x64, 0x65, 0x66, 0x61,
  0x75, 0x6c, 0x74, 0x5f, 0x6b, 0x65, 0x72, 0x61, 0x73, 0x5f, 0x74, 0x65,
  0x6e, 0x73, 0x6f, 0x72, 0x3a, 0x30, 0x00, 0x00, 0x02, 0x00, 0x00, 0x00,
  0x01, 0x00, 0x00, 0x00, 0x08, 0x00, 0x00, 0x00, 0x02, 0x00, 0x00, 0x00,
  0x2c, 0x00, 0x00, 0x00, 0x10, 0x00, 0x00, 0x00, 0x0c, 0x00, 0x0c, 0x00,
  0x0b, 0x00, 0x00, 0x00, 0x00, 0x00, 0x04, 0x00, 0x0c, 0x00, 0x00, 0x00,
  0x19, 0x00, 0x00, 0x00, 0x00, 0x00, 0x00, 0x19, 0x0c, 0x00, 0x10, 0x00,
  0x0f, 0x00, 0x00, 0x00, 0x08, 0x00, 0x04, 0x00, 0x0c, 0x00, 0x00, 0x00,
  0x09, 0x00, 0x00, 0x00, 0x0c, 0x00, 0x00, 0x00, 0x00, 0x00, 0x00, 0x09
};
unsigned int __output_model_tflite_len = 7896;
