/* 
  This header file contains the definition of the unsigned char array that represents 
  the binary format of the TensorFlow Lite model to be run by the Arduino sketch. 
  This TensorFlow Lite model was generated on an external development system,
  where the original Deep Neural Network model was created and trained. 
  The trained model was saved in .tflite format and its hexadecimal dump was used to build 
  the following declaration with initialization of the model array. 
  The alignas(16) directive is used to ensure that the array is aligned on a 16-byte boundary, 
  which is important for performance and to prevent some issues on ARM microcontroller architectures.

  Additionally, the labels are included as an enum and a string array to work with.
  
  Model size: 9936 bytes (HEX dump only - excluding definitions)
  Generated on: 2024-11-08 14:46:34 (GMT+08)
*/


const char *LABELS[] = {
  "no_contact",
  "perfect_posture",
  "leaning_back",
  "slouching",
  "leaning_forward",
  "leaning_left",
  "leaning_right"
};

enum Positions {
  NO_CONTACT = 0,
  PERFECT_POSTURE = 1,
  LEANING_BACK = 2,
  SLOUCHING = 3,
  LEANING_FORWARD = 4,
  LEANING_LEFT = 5,
  LEANING_RIGHT = 6
};


alignas(16) unsigned char __output_model_tflite[] = {
  0x1c, 0x00, 0x00, 0x00, 0x54, 0x46, 0x4c, 0x33, 0x14, 0x00, 0x20, 0x00,
  0x1c, 0x00, 0x18, 0x00, 0x14, 0x00, 0x10, 0x00, 0x0c, 0x00, 0x00, 0x00,
  0x08, 0x00, 0x04, 0x00, 0x14, 0x00, 0x00, 0x00, 0x1c, 0x00, 0x00, 0x00,
  0x98, 0x00, 0x00, 0x00, 0xf0, 0x00, 0x00, 0x00, 0xd4, 0x1d, 0x00, 0x00,
  0xe4, 0x1d, 0x00, 0x00, 0x5c, 0x26, 0x00, 0x00, 0x03, 0x00, 0x00, 0x00,
  0x01, 0x00, 0x00, 0x00, 0x10, 0x00, 0x00, 0x00, 0x00, 0x00, 0x0a, 0x00,
  0x10, 0x00, 0x0c, 0x00, 0x08, 0x00, 0x04, 0x00, 0x0a, 0x00, 0x00, 0x00,
  0x0c, 0x00, 0x00, 0x00, 0x1c, 0x00, 0x00, 0x00, 0x3c, 0x00, 0x00, 0x00,
  0x0f, 0x00, 0x00, 0x00, 0x73, 0x65, 0x72, 0x76, 0x69, 0x6e, 0x67, 0x5f,
  0x64, 0x65, 0x66, 0x61, 0x75, 0x6c, 0x74, 0x00, 0x01, 0x00, 0x00, 0x00,
  0x04, 0x00, 0x00, 0x00, 0x90, 0xff, 0xff, 0xff, 0x0d, 0x00, 0x00, 0x00,
  0x04, 0x00, 0x00, 0x00, 0x08, 0x00, 0x00, 0x00, 0x6f, 0x75, 0x74, 0x70,
  0x75, 0x74, 0x5f, 0x30, 0x00, 0x00, 0x00, 0x00, 0x01, 0x00, 0x00, 0x00,
  0x04, 0x00, 0x00, 0x00, 0x0e, 0xe2, 0xff, 0xff, 0x04, 0x00, 0x00, 0x00,
  0x0c, 0x00, 0x00, 0x00, 0x6b, 0x65, 0x72, 0x61, 0x73, 0x5f, 0x74, 0x65,
  0x6e, 0x73, 0x6f, 0x72, 0x00, 0x00, 0x00, 0x00, 0x02, 0x00, 0x00, 0x00,
  0x34, 0x00, 0x00, 0x00, 0x04, 0x00, 0x00, 0x00, 0xdc, 0xff, 0xff, 0xff,
  0x10, 0x00, 0x00, 0x00, 0x04, 0x00, 0x00, 0x00, 0x13, 0x00, 0x00, 0x00,
  0x43, 0x4f, 0x4e, 0x56, 0x45, 0x52, 0x53, 0x49, 0x4f, 0x4e, 0x5f, 0x4d,
  0x45, 0x54, 0x41, 0x44, 0x41, 0x54, 0x41, 0x00, 0x08, 0x00, 0x0c, 0x00,
  0x08, 0x00, 0x04, 0x00, 0x08, 0x00, 0x00, 0x00, 0x0f, 0x00, 0x00, 0x00,
  0x04, 0x00, 0x00, 0x00, 0x13, 0x00, 0x00, 0x00, 0x6d, 0x69, 0x6e, 0x5f,
  0x72, 0x75, 0x6e, 0x74, 0x69, 0x6d, 0x65, 0x5f, 0x76, 0x65, 0x72, 0x73,
  0x69, 0x6f, 0x6e, 0x00, 0x11, 0x00, 0x00, 0x00, 0xe0, 0x1c, 0x00, 0x00,
  0xd8, 0x1c, 0x00, 0x00, 0xc8, 0x14, 0x00, 0x00, 0xb8, 0x13, 0x00, 0x00,
  0x28, 0x13, 0x00, 0x00, 0xd8, 0x12, 0x00, 0x00, 0xac, 0x12, 0x00, 0x00,
  0xdc, 0x10, 0x00, 0x00, 0xcc, 0x08, 0x00, 0x00, 0xbc, 0x00, 0x00, 0x00,
  0xb4, 0x00, 0x00, 0x00, 0xac, 0x00, 0x00, 0x00, 0xa4, 0x00, 0x00, 0x00,
  0x9c, 0x00, 0x00, 0x00, 0x94, 0x00, 0x00, 0x00, 0x74, 0x00, 0x00, 0x00,
  0x04, 0x00, 0x00, 0x00, 0xce, 0xe2, 0xff, 0xff, 0x04, 0x00, 0x00, 0x00,
  0x60, 0x00, 0x00, 0x00, 0x0c, 0x00, 0x00, 0x00, 0x08, 0x00, 0x0e, 0x00,
  0x08, 0x00, 0x04, 0x00, 0x08, 0x00, 0x00, 0x00, 0x10, 0x00, 0x00, 0x00,
  0x28, 0x00, 0x00, 0x00, 0x00, 0x00, 0x06, 0x00, 0x08, 0x00, 0x04, 0x00,
  0x06, 0x00, 0x00, 0x00, 0x04, 0x00, 0x00, 0x00, 0x01, 0x00, 0x00, 0x00,
  0xea, 0x03, 0x00, 0x00, 0x0c, 0x00, 0x18, 0x00, 0x14, 0x00, 0x10, 0x00,
  0x0c, 0x00, 0x04, 0x00, 0x0c, 0x00, 0x00, 0x00, 0x84, 0xbf, 0x05, 0xc0,
  0x49, 0x71, 0x60, 0x46, 0x02, 0x00, 0x00, 0x00, 0x02, 0x00, 0x00, 0x00,
  0x04, 0x00, 0x00, 0x00, 0x06, 0x00, 0x00, 0x00, 0x32, 0x2e, 0x31, 0x38,
  0x2e, 0x30, 0x00, 0x00, 0x3a, 0xe3, 0xff, 0xff, 0x04, 0x00, 0x00, 0x00,
  0x10, 0x00, 0x00, 0x00, 0x32, 0x2e, 0x31, 0x37, 0x2e, 0x30, 0x00, 0x00,
  0x00, 0x00, 0x00, 0x00, 0x00, 0x00, 0x00, 0x00, 0x90, 0xdb, 0xff, 0xff,
  0x94, 0xdb, 0xff, 0xff, 0x98, 0xdb, 0xff, 0xff, 0x9c, 0xdb, 0xff, 0xff,
  0xa0, 0xdb, 0xff, 0xff, 0x6a, 0xe3, 0xff, 0xff, 0x04, 0x00, 0x00, 0x00,
  0x00, 0x08, 0x00, 0x00, 0x36, 0x07, 0x0d, 0xb3, 0x9f, 0x1f, 0x88, 0x0d,
  0x95, 0xfa, 0x7f, 0x30, 0x25, 0x6c, 0x12, 0xe5, 0x25, 0x81, 0x83, 0xe7,
  0x86, 0x6d, 0x0e, 0x9d, 0x7a, 0x64, 0x3f, 0x27, 0xb7, 0xab, 0x37, 0x84,
  0xb9, 0x24, 0xbd, 0x21, 0x6e, 0xdf, 0x09, 0x3c, 0xae, 0xe2, 0xe7, 0xaa,
  0xa2, 0x11, 0x9e, 0x9a, 0xc7, 0xf0, 0x03, 0xfa, 0x1e, 0xc2, 0x97, 0xd6,
  0xbb, 0x19, 0x61, 0x5a, 0x92, 0xb3, 0x71, 0x03, 0xda, 0x94, 0x63, 0x54,
  0x36, 0x9a, 0x52, 0xf9, 0xef, 0x92, 0x93, 0xc0, 0x0a, 0x81, 0x9b, 0xa0,
  0x8c, 0x9a, 0xda, 0x6d, 0xca, 0x2d, 0xb8, 0x60, 0xbc, 0xa8, 0xc8, 0x01,
  0x21, 0x4f, 0xeb, 0xb3, 0xd4, 0x36, 0x33, 0x97, 0x35, 0xb2, 0x90, 0x00,
  0xa6, 0x02, 0x07, 0x9d, 0x97, 0x62, 0x26, 0x3e, 0xa2, 0xb6, 0xed, 0x2f,
  0x38, 0x2d, 0xe3, 0x2f, 0x0b, 0x63, 0x41, 0x4d, 0x47, 0xba, 0x10, 0x6a,
  0x54, 0xe6, 0xa7, 0x27, 0x79, 0x47, 0x84, 0xb1, 0xd2, 0x0d, 0x00, 0xa2,
  0xcc, 0x92, 0xff, 0x34, 0xb7, 0xd4, 0xc5, 0xc4, 0xc9, 0x9e, 0x97, 0x17,
  0x7a, 0x32, 0xde, 0x5e, 0x1b, 0x5a, 0x5d, 0xff, 0xfe, 0x5c, 0x45, 0xea,
  0x66, 0x7a, 0xbd, 0x3f, 0x0e, 0xce, 0x1d, 0x2c, 0x2f, 0x02, 0xeb, 0x36,
  0x93, 0xf8, 0x0a, 0x64, 0x53, 0x84, 0x14, 0xf2, 0x26, 0x7f, 0xd2, 0x2b,
  0x91, 0xc2, 0x19, 0x06, 0x9b, 0xb3, 0x81, 0x5b, 0x0e, 0x11, 0xf0, 0xf6,
  0x06, 0x0f, 0xe9, 0x46, 0x55, 0xfe, 0x0d, 0xf6, 0x99, 0x29, 0xf1, 0x0a,
  0xcf, 0xaa, 0x3c, 0x3f, 0x2c, 0x9d, 0xdf, 0x33, 0xba, 0x63, 0xa4, 0x0b,
  0xc5, 0x38, 0xfa, 0x08, 0x42, 0x37, 0x1f, 0xd9, 0x54, 0xd6, 0xc7, 0x34,
  0x03, 0xef, 0x47, 0xc5, 0x22, 0x43, 0x33, 0x42, 0x07, 0x24, 0xf2, 0x4c,
  0xcd, 0x10, 0x51, 0x2d, 0x0a, 0xb5, 0x5b, 0xe0, 0x2f, 0x4a, 0x6f, 0xc4,
  0x42, 0x81, 0x1a, 0xab, 0x75, 0xf2, 0xda, 0xb2, 0x20, 0xbf, 0x0a, 0x8f,
  0xe7, 0x99, 0xad, 0x98, 0xae, 0x9c, 0x52, 0x48, 0xb7, 0xc5, 0xc4, 0xa9,
  0xf9, 0x4d, 0xaf, 0xb0, 0x58, 0x39, 0x8d, 0x54, 0xf2, 0xa8, 0x26, 0x0d,
  0xca, 0xfe, 0xf5, 0x42, 0x35, 0x65, 0xd2, 0x04, 0xda, 0xf4, 0xd2, 0xc9,
  0x38, 0x34, 0xa4, 0x3f, 0x9b, 0x2a, 0xd2, 0x68, 0x19, 0x71, 0x49, 0xe2,
  0x23, 0x9a, 0xb5, 0x94, 0xf0, 0xde, 0x76, 0x74, 0x19, 0xb6, 0xc3, 0x9c,
  0xea, 0xac, 0x88, 0xb6, 0xf3, 0x21, 0x47, 0x45, 0x71, 0x58, 0x5f, 0x04,
  0x3b, 0x05, 0x0b, 0x33, 0xe3, 0x85, 0x09, 0xd2, 0x25, 0x03, 0x49, 0x1b,
  0x16, 0x7f, 0x51, 0xdb, 0x18, 0xc7, 0x23, 0xde, 0xbd, 0xce, 0xd0, 0xe6,
  0x1c, 0xad, 0x2d, 0x0a, 0xba, 0x0e, 0x0e, 0x22, 0x18, 0x69, 0xbe, 0x85,
  0xe1, 0x83, 0xa6, 0x12, 0x27, 0x65, 0xfe, 0x13, 0x18, 0x3d, 0xd6, 0x9a,
  0x3b, 0xcf, 0x8d, 0xe7, 0x04, 0xfd, 0x07, 0xa6, 0xc8, 0x8d, 0xa5, 0x92,
  0xf7, 0x6d, 0x30, 0x96, 0xfd, 0xe2, 0xb9, 0x6b, 0x07, 0x36, 0x5b, 0xeb,
  0xf8, 0x52, 0x8c, 0x41, 0x36, 0x06, 0x31, 0xff, 0x26, 0x5b, 0x29, 0xbf,
  0x1f, 0xc1, 0xb3, 0x1a, 0xbe, 0xd8, 0xb7, 0xff, 0xb9, 0x6f, 0x3c, 0x5d,
  0xfa, 0x50, 0xdc, 0x05, 0x2a, 0x81, 0x04, 0x0d, 0xb0, 0x28, 0x58, 0xaf,
  0x08, 0x14, 0x91, 0xd4, 0x04, 0xad, 0xae, 0xab, 0x88, 0xa1, 0xd2, 0xd4,
  0xb3, 0xb8, 0x58, 0x04, 0x9e, 0x39, 0x1a, 0xf9, 0x42, 0xfb, 0x5d, 0x99,
  0xb9, 0x63, 0x44, 0xde, 0xae, 0x15, 0xec, 0x93, 0x32, 0xf5, 0x27, 0x74,
  0xb1, 0x08, 0x9e, 0x82, 0x5f, 0xfc, 0x82, 0xb7, 0x81, 0x51, 0x9b, 0x44,
  0x21, 0x8e, 0x02, 0xc6, 0xaa, 0x66, 0x6c, 0x25, 0xd8, 0x17, 0x27, 0x5b,
  0xb5, 0x24, 0x32, 0xcd, 0x3f, 0x2d, 0x0d, 0xf4, 0x47, 0xc3, 0x89, 0x8a,
  0x1d, 0xcd, 0x29, 0x42, 0x36, 0xfc, 0x98, 0xc6, 0xdb, 0x94, 0x18, 0x2f,
  0x1e, 0xeb, 0x14, 0xf6, 0xdf, 0x6a, 0xdb, 0x9f, 0x8a, 0x60, 0x9c, 0xc4,
  0xdd, 0x22, 0x11, 0xed, 0x1e, 0x37, 0x3c, 0x8c, 0x93, 0x41, 0xbe, 0x18,
  0x4e, 0xba, 0x67, 0xfc, 0x34, 0x5c, 0x81, 0x8b, 0x44, 0x6e, 0x7c, 0x51,
  0x4c, 0xd1, 0xe1, 0x58, 0x0a, 0xb4, 0x2d, 0xe9, 0x8b, 0x23, 0x8b, 0x15,
  0xb6, 0x47, 0x49, 0xa5, 0x2d, 0xb8, 0x47, 0x53, 0x34, 0xac, 0x9c, 0xda,
  0x54, 0x46, 0x92, 0x8c, 0xf4, 0x49, 0x0d, 0x7f, 0x8b, 0x30, 0x87, 0xa8,
  0x9c, 0x6d, 0x6e, 0x4e, 0x86, 0xc7, 0xf3, 0x1a, 0xd5, 0x93, 0xf7, 0xd1,
  0x9f, 0x24, 0xf2, 0x41, 0x86, 0xd2, 0xf1, 0xf5, 0x16, 0x47, 0xb0, 0x76,
  0xcc, 0xba, 0x67, 0x23, 0x62, 0x24, 0xd2, 0x13, 0x59, 0xe3, 0xcd, 0xdc,
  0x55, 0xbf, 0xd2, 0xc7, 0xee, 0xd4, 0x1e, 0x53, 0x0a, 0xe2, 0x20, 0x3e,
  0xfe, 0x95, 0xbf, 0xfc, 0x39, 0xb7, 0x4c, 0xee, 0x51, 0x60, 0x4b, 0x05,
  0xfc, 0xd4, 0xc1, 0xde, 0x3f, 0x2a, 0xd2, 0xe4, 0xd8, 0x56, 0xca, 0xce,
  0x38, 0x15, 0x47, 0x5b, 0xdc, 0xd3, 0xf2, 0x52, 0x5c, 0x44, 0x7f, 0x34,
  0xc6, 0x38, 0x4d, 0x19, 0x3b, 0x05, 0x9f, 0xd3, 0xab, 0xde, 0x36, 0x06,
  0xc9, 0x4c, 0x67, 0xc6, 0xcd, 0x05, 0x4a, 0x48, 0x98, 0x2b, 0x2b, 0xfa,
  0xff, 0xad, 0xac, 0x63, 0xd8, 0xb4, 0x2f, 0xd9, 0x08, 0x3a, 0xaa, 0x38,
  0xab, 0xaa, 0xc7, 0xac, 0x26, 0x18, 0xc2, 0xf9, 0x43, 0x59, 0x7f, 0x96,
  0xcd, 0x0d, 0xee, 0xbd, 0x29, 0x2b, 0x2c, 0xe6, 0x11, 0xa8, 0x57, 0x4d,
  0xd2, 0x0a, 0x33, 0xad, 0x98, 0xca, 0x34, 0xdb, 0xdb, 0x1b, 0x50, 0xe5,
  0xe8, 0x71, 0x40, 0xa2, 0xc2, 0xfc, 0xd2, 0x45, 0x25, 0xfe, 0x2c, 0xfd,
  0x0c, 0x08, 0xb6, 0xf2, 0x47, 0xfa, 0x1f, 0xd4, 0x0e, 0xc4, 0x2e, 0xba,
  0xf8, 0x31, 0x9f, 0x33, 0x20, 0xcd, 0xfe, 0xc7, 0xe4, 0xc0, 0xf0, 0xcd,
  0x36, 0x4d, 0x39, 0xc6, 0x12, 0x40, 0x20, 0x30, 0xb7, 0xd4, 0x21, 0x3e,
  0x7f, 0xcd, 0xc6, 0xc0, 0x28, 0x3c, 0xb4, 0xb5, 0x1a, 0x18, 0x11, 0xd2,
  0xd4, 0xd5, 0xfc, 0x10, 0xf8, 0xd7, 0x0e, 0xbd, 0x4b, 0x26, 0x07, 0xd6,
  0xce, 0xf6, 0xce, 0x34, 0x4f, 0x10, 0x43, 0x43, 0x24, 0x95, 0x2c, 0x03,
  0xbd, 0x35, 0x47, 0xb9, 0xcc, 0xe0, 0xa5, 0xe3, 0xa9, 0xe7, 0x22, 0x07,
  0x3e, 0x0f, 0xe5, 0x09, 0xb8, 0x55, 0xfb, 0xfe, 0x38, 0xfc, 0xc1, 0x3b,
  0xf5, 0xe4, 0xd2, 0x3b, 0x57, 0x3f, 0xdb, 0xe8, 0x08, 0xc6, 0x1a, 0xb0,
  0x46, 0xf8, 0x3d, 0xc3, 0xe4, 0x9b, 0x7f, 0xd4, 0x1d, 0xf7, 0x41, 0xbb,
  0xc0, 0xe6, 0x99, 0x59, 0xfc, 0xa7, 0x61, 0x65, 0x23, 0xde, 0x1b, 0x9d,
  0x92, 0x42, 0x7a, 0x1f, 0xba, 0x0a, 0xe0, 0xe6, 0x5c, 0x4b, 0xd6, 0xf4,
  0xc1, 0x05, 0x8e, 0xc7, 0xc0, 0xe2, 0x81, 0xb1, 0x68, 0x1c, 0x3a, 0xde,
  0x9f, 0x88, 0x03, 0x46, 0x0a, 0x50, 0xbb, 0x21, 0xb8, 0x96, 0x39, 0xd8,
  0xa5, 0x7e, 0x0b, 0xd8, 0x2c, 0xd4, 0x47, 0x5d, 0x9d, 0xe5, 0x49, 0xa6,
  0x03, 0x10, 0x4a, 0xcb, 0x28, 0x85, 0x81, 0x2f, 0x04, 0x57, 0xc3, 0xec,
  0xf4, 0x22, 0xc1, 0x56, 0xf6, 0x4a, 0xf6, 0xed, 0xa0, 0x26, 0x46, 0xf7,
  0x02, 0xa6, 0xef, 0x49, 0xbf, 0x35, 0xe9, 0x23, 0xde, 0xbf, 0xe2, 0x1f,
  0xe6, 0xb8, 0x2e, 0xe3, 0xbb, 0x39, 0x25, 0xe9, 0x2d, 0xe3, 0x08, 0x5f,
  0xa1, 0xd0, 0x25, 0x58, 0xf0, 0x16, 0xb0, 0x0e, 0xe5, 0x48, 0xba, 0x11,
  0x39, 0xd5, 0x57, 0xe5, 0xa8, 0xbc, 0xb9, 0xec, 0x29, 0xe4, 0xa8, 0x0e,
  0x67, 0xac, 0x95, 0xb7, 0x96, 0x0b, 0x01, 0x24, 0x1d, 0x16, 0x2c, 0x31,
  0xa2, 0xb3, 0xe8, 0x08, 0xcf, 0x88, 0xa3, 0x99, 0x5e, 0x0e, 0xef, 0x79,
  0x9a, 0xb9, 0xe8, 0xdf, 0xa5, 0x26, 0x0c, 0x4f, 0x87, 0x5f, 0x67, 0xbb,
  0x81, 0x64, 0xdb, 0xf2, 0x0e, 0x96, 0x40, 0xdc, 0xaf, 0xb4, 0x1d, 0xe5,
  0x0a, 0x73, 0xef, 0x4e, 0x1b, 0x65, 0x10, 0x12, 0xd3, 0x4e, 0xad, 0xf8,
  0x0b, 0x97, 0xaa, 0xb2, 0x49, 0xb8, 0x06, 0xcc, 0x79, 0x75, 0xba, 0x87,
  0x27, 0xbe, 0x7f, 0x01, 0xc5, 0x8b, 0xd6, 0xbb, 0xd4, 0x87, 0xa7, 0x1a,
  0x8a, 0x73, 0x96, 0x3e, 0x07, 0xa3, 0xf4, 0xc0, 0x27, 0xf6, 0x0e, 0x5f,
  0xf1, 0xcb, 0xa9, 0x9b, 0x56, 0x44, 0xe8, 0xdd, 0x22, 0x89, 0xf5, 0x97,
  0x56, 0x58, 0xc8, 0x0c, 0xab, 0xe9, 0x6b, 0x09, 0x4c, 0x15, 0xfc, 0x60,
  0x60, 0xc4, 0x15, 0xca, 0xc8, 0xe8, 0x0d, 0x12, 0xe8, 0x22, 0xd2, 0xb3,
  0x1a, 0xf4, 0x22, 0x0d, 0xd4, 0xb0, 0x0e, 0xef, 0xeb, 0xe3, 0x40, 0x04,
  0xf3, 0x81, 0x14, 0xf2, 0x1e, 0xcc, 0x42, 0x0e, 0xcd, 0x43, 0xd8, 0xc2,
  0x2b, 0xd0, 0x02, 0xde, 0x19, 0x06, 0x3c, 0x0d, 0x33, 0xdb, 0x2a, 0x0f,
  0xd6, 0x11, 0xab, 0xf4, 0x2e, 0xe1, 0xee, 0x04, 0x08, 0xed, 0xeb, 0xec,
  0x2a, 0xbb, 0x23, 0xd1, 0xf5, 0x0f, 0x16, 0x23, 0x6a, 0xb3, 0x0a, 0xef,
  0xdb, 0x26, 0x54, 0x9a, 0x2c, 0x9b, 0xfe, 0x0c, 0xf8, 0x8f, 0xa8, 0x09,
  0x17, 0x3e, 0x2d, 0xae, 0xdf, 0x4a, 0xfd, 0xbb, 0xf0, 0xc0, 0x86, 0xee,
  0xed, 0x3d, 0xd7, 0xba, 0xac, 0x23, 0x26, 0x34, 0x10, 0x9a, 0x4f, 0xf8,
  0xe9, 0xeb, 0x24, 0xe6, 0xbd, 0xc1, 0x5d, 0x67, 0xef, 0x65, 0xa4, 0x10,
  0xcc, 0xfd, 0xfb, 0x8d, 0x81, 0x3c, 0xed, 0x58, 0xfa, 0x2c, 0xbc, 0x54,
  0xd9, 0xe9, 0x0e, 0xf8, 0x46, 0x96, 0xdd, 0x62, 0xee, 0xb0, 0x04, 0xcf,
  0x9d, 0xbc, 0xf9, 0x33, 0xe0, 0x4f, 0x2d, 0x38, 0x47, 0x5d, 0x4b, 0xab,
  0x45, 0x73, 0x04, 0x79, 0x53, 0xdf, 0x83, 0xa0, 0x4e, 0x21, 0xc3, 0x2b,
  0xa3, 0x81, 0x5e, 0x6d, 0x11, 0x53, 0x60, 0xe8, 0xf2, 0xc9, 0x70, 0x58,
  0x2a, 0x42, 0x54, 0xfe, 0xe1, 0x4a, 0xa4, 0xe0, 0xc9, 0x40, 0x46, 0x97,
  0x2f, 0x1c, 0x9b, 0x1b, 0xeb, 0x00, 0x37, 0x13, 0xf0, 0x5e, 0x8a, 0x91,
  0xf0, 0xf2, 0x71, 0x63, 0xa5, 0xe2, 0xf9, 0x2a, 0x59, 0x84, 0x0a, 0x2d,
  0x01, 0x1c, 0x2f, 0x3b, 0x78, 0xdc, 0x28, 0x01, 0x0c, 0xd7, 0x18, 0x72,
  0x57, 0x9a, 0x26, 0x64, 0x2e, 0x37, 0xed, 0x13, 0x1e, 0xb6, 0x64, 0x39,
  0x1f, 0x54, 0xe4, 0x77, 0xd7, 0x33, 0xe0, 0x71, 0x41, 0x43, 0x05, 0x14,
  0x17, 0x13, 0xbf, 0xec, 0xe3, 0x81, 0x35, 0xdc, 0x1c, 0x09, 0x1a, 0xf6,
  0xe4, 0x0a, 0xf0, 0xca, 0xd6, 0xce, 0xcb, 0x82, 0xe0, 0xb9, 0x09, 0xba,
  0xcc, 0x41, 0x38, 0xb8, 0xd2, 0x05, 0xcf, 0x2e, 0xe6, 0x12, 0x30, 0x4a,
  0xf1, 0xed, 0x1a, 0xe5, 0xb6, 0x30, 0xcb, 0xbc, 0xf0, 0x07, 0x0a, 0xd4,
  0x13, 0xfe, 0xd9, 0x13, 0x20, 0x3f, 0x10, 0xd1, 0xdc, 0xc8, 0xe4, 0xe6,
  0xe4, 0xc7, 0x00, 0x32, 0x04, 0x50, 0x81, 0x24, 0xec, 0x1e, 0x28, 0x29,
  0xd0, 0xc0, 0xfb, 0xc6, 0x93, 0x1c, 0x6b, 0xa0, 0x82, 0xe3, 0xb3, 0x9b,
  0x6d, 0x9f, 0x6e, 0x92, 0x5d, 0xd4, 0x39, 0x01, 0xe4, 0xa9, 0x84, 0xaa,
  0x49, 0x83, 0x74, 0x9b, 0xa5, 0x93, 0x97, 0xc5, 0xe2, 0x27, 0x37, 0x26,
  0x43, 0xe4, 0xf9, 0x85, 0xbe, 0xa6, 0xa4, 0xf6, 0xc3, 0xd7, 0x1e, 0xfc,
  0x37, 0x76, 0xa5, 0x6f, 0x91, 0x8c, 0x7f, 0xe0, 0xe2, 0x1b, 0x82, 0x5c,
  0xbb, 0xb2, 0xa6, 0x9e, 0x40, 0x3a, 0x7f, 0x25, 0xcd, 0x45, 0xf6, 0x62,
  0xf4, 0xb3, 0x1e, 0xd6, 0xe3, 0x48, 0x01, 0xe5, 0x3b, 0x53, 0xa5, 0x3a,
  0xe0, 0x16, 0xd9, 0x64, 0xdf, 0xd6, 0x41, 0xd4, 0xd6, 0xfb, 0xa3, 0x12,
  0x45, 0x1b, 0xf6, 0x0a, 0x66, 0x03, 0x1f, 0x48, 0x26, 0xa5, 0xbd, 0x44,
  0x0c, 0xe5, 0x5a, 0x49, 0x39, 0x24, 0xf0, 0x5d, 0x3b, 0x51, 0xd0, 0x51,
  0xed, 0x58, 0xe5, 0x20, 0xd6, 0x3b, 0xa6, 0xb8, 0xce, 0x29, 0x69, 0x4b,
  0xe6, 0x1f, 0xbf, 0xeb, 0xf0, 0x9d, 0xd2, 0x50, 0x8a, 0xef, 0x3b, 0x36,
  0xd1, 0x81, 0xe1, 0x29, 0x0c, 0xab, 0x18, 0xfe, 0x17, 0xa9, 0x3a, 0xc8,
  0x50, 0xf1, 0x3e, 0x5f, 0x42, 0x3b, 0xb3, 0xfe, 0x2e, 0x46, 0x07, 0x0e,
  0xbc, 0xc8, 0x58, 0xc2, 0x4c, 0xe3, 0xec, 0xdf, 0x4b, 0xcd, 0x62, 0x4d,
  0xd4, 0x55, 0x0e, 0x2c, 0x19, 0xd4, 0xe7, 0x23, 0xaf, 0xfe, 0x4b, 0x38,
  0x20, 0x98, 0x84, 0x5f, 0xc7, 0x81, 0x9e, 0xc4, 0xc1, 0xbc, 0xa1, 0x66,
  0x76, 0x35, 0x25, 0x74, 0x97, 0xd8, 0x27, 0x5e, 0x39, 0xa8, 0xdb, 0xc8,
  0xa0, 0xb8, 0x69, 0xb5, 0xf7, 0x52, 0x50, 0x64, 0x2a, 0x2b, 0x45, 0x29,
  0x10, 0xfe, 0x6c, 0xd3, 0x0d, 0xfe, 0x30, 0x0a, 0xe4, 0xbd, 0x41, 0xb6,
  0x2b, 0x27, 0xbf, 0x45, 0xe3, 0xf4, 0x48, 0xdc, 0x5a, 0xbd, 0x4b, 0x34,
  0xcb, 0x01, 0xc6, 0x2c, 0x14, 0x30, 0x98, 0x66, 0xb8, 0x00, 0x89, 0xee,
  0x5b, 0xa2, 0x92, 0xc3, 0x81, 0xe8, 0x4e, 0xac, 0xba, 0x49, 0x63, 0x73,
  0xe3, 0xf9, 0xca, 0x01, 0x0a, 0x8e, 0x01, 0xe0, 0xc3, 0x07, 0x3b, 0x29,
  0x1d, 0x97, 0xeb, 0xef, 0xc5, 0x6a, 0x57, 0x73, 0x85, 0xa7, 0xee, 0x45,
  0xfe, 0xfc, 0x16, 0xb9, 0x92, 0x28, 0x1d, 0xc6, 0x64, 0xb1, 0x29, 0xfa,
  0xc7, 0xd9, 0x72, 0xbe, 0x28, 0xd3, 0x69, 0x1e, 0x4c, 0xdd, 0x21, 0xe5,
  0xac, 0xdb, 0xb1, 0x0b, 0x25, 0x31, 0x4e, 0x78, 0xe6, 0xef, 0xad, 0x08,
  0x97, 0x66, 0x42, 0xd0, 0xfe, 0xa2, 0xd7, 0xa7, 0xcb, 0x1b, 0xcc, 0x43,
  0x36, 0xfa, 0xc6, 0xd6, 0x71, 0x28, 0xc4, 0x95, 0x39, 0xbe, 0xa1, 0x96,
  0x55, 0xef, 0xe0, 0x41, 0x45, 0x27, 0xb6, 0x15, 0xd9, 0xa7, 0xcf, 0xa3,
  0xed, 0x07, 0xf1, 0xe1, 0x20, 0x7b, 0xd8, 0xb1, 0x81, 0xb4, 0xbd, 0x37,
  0x14, 0x17, 0x19, 0x03, 0xd8, 0x1d, 0xbd, 0xb8, 0xd9, 0x12, 0x1d, 0x21,
  0x32, 0x42, 0xff, 0xd8, 0x4e, 0xd3, 0xd0, 0x26, 0x52, 0x7f, 0xdc, 0x09,
  0xf0, 0x2e, 0x1e, 0x2d, 0x04, 0xed, 0x15, 0xd9, 0xfd, 0x1a, 0x13, 0x58,
  0xe4, 0xcc, 0xdd, 0xb1, 0x0c, 0xfa, 0x1a, 0xff, 0xd1, 0x3f, 0xb0, 0x2c,
  0x32, 0xc7, 0xa6, 0xfb, 0x23, 0x3e, 0xe7, 0x32, 0x20, 0x36, 0xc7, 0x3f,
  0x1f, 0xda, 0x47, 0x4a, 0xbd, 0x06, 0xdf, 0x2f, 0xbf, 0x3b, 0xf0, 0xf5,
  0x1c, 0x53, 0x2a, 0x0f, 0x11, 0xd9, 0x2e, 0x5e, 0xba, 0x7f, 0x20, 0x48,
  0x26, 0x0f, 0xeb, 0x04, 0x39, 0x2a, 0xc4, 0x3c, 0xe0, 0x07, 0xe1, 0xef,
  0x4a, 0xc5, 0x2b, 0x25, 0x01, 0x0b, 0x12, 0x26, 0x15, 0xc1, 0xe1, 0xdf,
  0x02, 0xf4, 0x19, 0x35, 0xe6, 0xdd, 0x56, 0xb9, 0xf5, 0xad, 0xe8, 0xf9,
  0x30, 0x37, 0x09, 0xda, 0xe9, 0xf4, 0x2c, 0xf7, 0x00, 0x0b, 0xb9, 0x9c,
  0x00, 0x48, 0x00, 0xde, 0x42, 0x5c, 0xd2, 0x58, 0xdf, 0x34, 0x2b, 0x1a,
  0x0a, 0x7f, 0xba, 0x27, 0x05, 0xea, 0xc6, 0xea, 0x03, 0x06, 0xb1, 0xf3,
  0xc9, 0xba, 0xff, 0xf8, 0x3c, 0x45, 0xf5, 0x00, 0xbc, 0xb9, 0xac, 0xe0,
  0x06, 0x16, 0x9c, 0x2e, 0xc0, 0xfc, 0x4d, 0x24, 0x11, 0xd0, 0xeb, 0x1b,
  0xfc, 0xba, 0xcd, 0x38, 0x4f, 0x45, 0xba, 0xc0, 0xc9, 0x3e, 0xd7, 0xfa,
  0x76, 0xeb, 0xff, 0xff, 0x04, 0x00, 0x00, 0x00, 0x00, 0x08, 0x00, 0x00,
  0x39, 0x6d, 0x81, 0xbe, 0x8b, 0x43, 0x33, 0xbe, 0x23, 0x57, 0x86, 0xbe,
  0x6c, 0x5f, 0xb2, 0x3c, 0x83, 0xc6, 0x95, 0x3e, 0xae, 0x66, 0xbf, 0x3d,
  0x60, 0x18, 0x83, 0xbe, 0x97, 0x62, 0x2e, 0xbe, 0xef, 0xd8, 0x0f, 0x3e,
  0xba, 0x6e, 0x46, 0x3e, 0xac, 0xa7, 0xa4, 0xbe, 0x72, 0x71, 0x3e, 0x3e,
  0xe0, 0xf3, 0x19, 0x3e, 0x89, 0x29, 0x6c, 0x3e, 0x96, 0x3e, 0xc0, 0x3e,
  0x7a, 0x7c, 0x85, 0xbd, 0x27, 0xb4, 0x90, 0x3d, 0x8f, 0xc5, 0x18, 0xbe,
  0xa9, 0xdf, 0x1b, 0xbd, 0x3f, 0x79, 0x85, 0xbd, 0xa1, 0xa3, 0x3c, 0x3e,
  0xec, 0x82, 0x16, 0x3e, 0x1f, 0x58, 0x2d, 0xbe, 0xd0, 0x6b, 0x50, 0xbd,
  0xde, 0x9b, 0x7c, 0xbe, 0xd4, 0x0f, 0x32, 0x3e, 0xb5, 0xdd, 0xe4, 0x3d,
  0x81, 0x6d, 0x03, 0xbe, 0x09, 0x55, 0x3c, 0xbe, 0x06, 0x51, 0x60, 0xbe,
  0xae, 0x30, 0x84, 0xbe, 0x17, 0x87, 0xdb, 0xbc, 0x06, 0xb5, 0x6f, 0x3e,
  0xf0, 0xd3, 0x02, 0x3d, 0x60, 0xcf, 0x87, 0x3e, 0xe8, 0x3d, 0x97, 0xbd,
  0x3e, 0x29, 0x6d, 0x3e, 0xc1, 0x96, 0x99, 0xbe, 0xcb, 0xb7, 0x0d, 0xbe,
  0x78, 0xfb, 0xae, 0xbe, 0x8b, 0xb7, 0xd1, 0x3b, 0x54, 0x3c, 0x0a, 0xbe,
  0x1b, 0x81, 0x23, 0x3d, 0x03, 0x90, 0xad, 0xbe, 0xdb, 0x26, 0x0c, 0x3e,
  0xe8, 0xb8, 0x34, 0xbd, 0xb6, 0x36, 0x57, 0xbe, 0x10, 0x19, 0xa8, 0xbe,
  0x03, 0x6d, 0x2d, 0xbe, 0x2c, 0xfe, 0x0f, 0x3e, 0x6e, 0xb5, 0x69, 0x3e,
  0x8b, 0xb3, 0x41, 0xbe, 0x76, 0xbf, 0x77, 0x3e, 0xd1, 0x1d, 0xb1, 0xbe,
  0x32, 0xe0, 0x23, 0xbe, 0x32, 0x2d, 0xde, 0xbd, 0x26, 0xd1, 0x1f, 0xbd,
  0x82, 0x4e, 0x8a, 0xbe, 0x99, 0x31, 0x69, 0x3e, 0x00, 0x80, 0x44, 0x37,
  0x60, 0x70, 0x83, 0x3c, 0x3d, 0x66, 0x01, 0xbe, 0x7c, 0x42, 0x74, 0x3e,
  0x88, 0x3c, 0x89, 0xbe, 0xfd, 0x41, 0x88, 0x3e, 0xfc, 0xec, 0x9b, 0x3e,
  0x64, 0x73, 0x80, 0x3e, 0x1e, 0x98, 0x8e, 0x3e, 0x6c, 0x3b, 0x59, 0xbe,
  0x22, 0x9a, 0x6e, 0x3e, 0xc1, 0x74, 0xd5, 0xbb, 0xf0, 0xdd, 0x52, 0x3d,
  0x3c, 0x2d, 0xad, 0x3d, 0x20, 0xae, 0x3c, 0x3c, 0xbf, 0x96, 0x25, 0x3e,
  0x4f, 0x3c, 0x8f, 0xbe, 0x79, 0xf4, 0xfb, 0x3d, 0x4e, 0x23, 0x96, 0xbe,
  0xf9, 0x4b, 0xa4, 0x3e, 0x7d, 0x6c, 0xc0, 0xbd, 0x8b, 0xa7, 0x97, 0x3e,
  0xf8, 0x3e, 0x95, 0x3d, 0xdd, 0x4d, 0x90, 0xbd, 0x8b, 0x73, 0x81, 0x3e,
  0xf8, 0xf6, 0xb2, 0x3c, 0xcf, 0x4e, 0xae, 0x3d, 0xee, 0x4c, 0xb5, 0xbe,
  0x6e, 0x61, 0xe3, 0xbd, 0xca, 0x53, 0x41, 0xbe, 0xa6, 0x97, 0x4c, 0xbe,
  0x10, 0x1d, 0xa2, 0xbe, 0x82, 0xd7, 0x9f, 0xbe, 0xd8, 0x63, 0x11, 0x3e,
  0x6f, 0x45, 0x86, 0xbe, 0xb8, 0xbb, 0x0b, 0x3e, 0x0e, 0x83, 0xe0, 0x3d,
  0x08, 0x1b, 0x76, 0xbd, 0x55, 0x6b, 0x8b, 0x3e, 0x66, 0x7c, 0x7f, 0xbd,
  0x66, 0x3b, 0x7d, 0xbe, 0xa6, 0xb3, 0x49, 0x3e, 0xe0, 0xa9, 0xfe, 0x3d,
  0x31, 0x55, 0x9b, 0x3e, 0xf4, 0xc7, 0x03, 0xbe, 0x74, 0x97, 0x73, 0x3e,
  0x80, 0x97, 0x4e, 0xbe, 0xdd, 0xc3, 0x93, 0x3d, 0xd2, 0x77, 0xce, 0xbd,
  0x0f, 0xb3, 0x22, 0x3e, 0x50, 0xb0, 0x39, 0x3e, 0xa3, 0x50, 0x45, 0xbe,
  0x25, 0xe9, 0x7d, 0xbe, 0x40, 0xf8, 0x27, 0x3e, 0xd1, 0xc4, 0x3c, 0x3e,
  0xeb, 0x43, 0x70, 0x3e, 0x75, 0x16, 0x7c, 0xbe, 0xd4, 0x26, 0x94, 0xbe,
  0x7a, 0x21, 0x58, 0x3e, 0x2e, 0xac, 0x04, 0xbb, 0x7c, 0x91, 0xd7, 0x3d,
  0x88, 0x3c, 0x0b, 0x3d, 0x07, 0xf6, 0x90, 0x3c, 0x4a, 0xcf, 0xc4, 0x3b,
  0x1a, 0xbe, 0x00, 0x3e, 0xf5, 0x3e, 0x80, 0x3e, 0xc5, 0x55, 0xce, 0xbd,
  0x00, 0x85, 0xaf, 0x3e, 0x7e, 0x43, 0x71, 0xbe, 0xdc, 0xab, 0x89, 0xbe,
  0x96, 0xbc, 0xc0, 0xbd, 0xbf, 0x18, 0x46, 0xbe, 0x6a, 0xee, 0xca, 0xbd,
  0xe6, 0x3d, 0xb0, 0xbe, 0xd7, 0xff, 0x1d, 0xbe, 0x1c, 0x1b, 0x29, 0xbe,
  0xd8, 0x3e, 0xb3, 0xbe, 0x03, 0x08, 0xc4, 0xbe, 0xf1, 0x46, 0x55, 0xbe,
  0xb3, 0xca, 0x09, 0x3d, 0xd1, 0xa9, 0x04, 0x3d, 0xd3, 0x97, 0x96, 0xbd,
  0xee, 0x2a, 0x3a, 0x3e, 0xc6, 0xd6, 0x90, 0x3e, 0x2a, 0x0a, 0xc1, 0xbe,
  0xcd, 0xb2, 0x4a, 0xbe, 0x9d, 0xa6, 0x83, 0xbd, 0xa9, 0x1b, 0xc2, 0xbe,
  0x5b, 0xc9, 0x9c, 0xbe, 0x1f, 0xa9, 0x21, 0xbe, 0xd1, 0x6c, 0x29, 0xbd,
  0x23, 0x5d, 0x30, 0x3e, 0x5a, 0x73, 0x01, 0x3e, 0xda, 0x2e, 0x6a, 0x3e,
  0x59, 0x4d, 0xd5, 0x3d, 0x88, 0xc6, 0x3c, 0xbe, 0xf8, 0x50, 0x96, 0x3d,
  0x40, 0x33, 0x5e, 0x3c, 0x69, 0x40, 0x15, 0xbe, 0x93, 0xc1, 0xc3, 0x3d,
  0x21, 0xa1, 0x35, 0x3e, 0x58, 0x1d, 0x7d, 0xbe, 0x06, 0x40, 0x66, 0xbe,
  0xd0, 0x56, 0xad, 0x3c, 0x37, 0x2b, 0x4f, 0x3e, 0xde, 0x7f, 0x2d, 0x3e,
  0x94, 0x02, 0xcb, 0x3d, 0x64, 0x7e, 0x9d, 0xbd, 0x3a, 0x88, 0x21, 0x3e,
  0xc5, 0xaa, 0x17, 0xbe, 0x13, 0xe1, 0x99, 0x3e, 0x56, 0x31, 0x99, 0xbe,
  0xc8, 0xe7, 0x12, 0xbe, 0x41, 0x85, 0xc5, 0x3d, 0x29, 0x0c, 0x64, 0xbe,
  0x98, 0x8f, 0x10, 0xbd, 0x37, 0x13, 0xbe, 0x3d, 0xc0, 0x34, 0x05, 0x3d,
  0x9c, 0x5c, 0xd3, 0x3d, 0xbb, 0xfb, 0x63, 0xbe, 0x00, 0x58, 0xa4, 0x3c,
  0x45, 0x95, 0x10, 0xbc, 0x18, 0x14, 0xa4, 0xbe, 0x5c, 0x04, 0x82, 0x3d,
  0xba, 0xad, 0x67, 0x3e, 0x13, 0x4f, 0xc9, 0xbd, 0x27, 0x43, 0xc8, 0xbd,
  0x80, 0x52, 0xa8, 0xbe, 0xa7, 0x98, 0x8a, 0x3e, 0x4e, 0x57, 0xd6, 0xbd,
  0x32, 0xaf, 0xec, 0x3d, 0xb0, 0xcf, 0x70, 0xbd, 0x8a, 0x6b, 0x3b, 0x3e,
  0x65, 0xf3, 0x9a, 0x3e, 0x9f, 0xe3, 0xcf, 0xbc, 0x87, 0x3d, 0x36, 0x3e,
  0xb7, 0x42, 0xc3, 0xbd, 0x92, 0x59, 0x13, 0xbe, 0x88, 0xec, 0x7d, 0x3e,
  0xf4, 0xfe, 0x94, 0xbe, 0x53, 0x06, 0x82, 0x3e, 0xb9, 0x99, 0xc1, 0xbc,
  0x89, 0x90, 0x81, 0x3e, 0x4b, 0xf7, 0x40, 0xbd, 0xe9, 0x65, 0x8b, 0x3e,
  0xc1, 0xc3, 0xa7, 0xbe, 0xc7, 0x50, 0x93, 0x3e, 0x48, 0x14, 0x20, 0x3d,
  0xef, 0x3b, 0x40, 0x3e, 0x0a, 0x8c, 0x4d, 0x3e, 0xfa, 0x4f, 0x9b, 0xbe,
  0x6b, 0x3f, 0x36, 0xbe, 0xe6, 0x99, 0x86, 0xbe, 0xc8, 0xf4, 0x9a, 0xbe,
  0x7c, 0xeb, 0x57, 0x3d, 0xb2, 0x8e, 0x29, 0x3e, 0xda, 0x85, 0x12, 0x3e,
  0x78, 0x23, 0x95, 0xbe, 0x09, 0x28, 0x2a, 0x3e, 0xf6, 0xbf, 0xaf, 0xbe,
  0x5e, 0xb2, 0x70, 0x3e, 0x58, 0xb6, 0x11, 0xbd, 0x5c, 0x3b, 0x99, 0xbe,
  0xf0, 0x9e, 0x57, 0xbe, 0xc4, 0x79, 0x36, 0x3e, 0x5c, 0x70, 0xdb, 0xbd,
  0xb6, 0xba, 0xf9, 0xbd, 0x56, 0x46, 0x16, 0x3e, 0x55, 0x76, 0xa4, 0x3e,
  0x9c, 0x14, 0x89, 0xbd, 0xe8, 0xbd, 0x7a, 0xbd, 0x1b, 0x39, 0xb1, 0x3e,
  0xc1, 0x45, 0xb4, 0xbe, 0x29, 0x3d, 0x70, 0xbe, 0x4a, 0x96, 0x37, 0x3e,
  0x3a, 0x8e, 0x7f, 0xbe, 0xbe, 0x59, 0x1a, 0x3e, 0x2e, 0x01, 0x9d, 0x3d,
  0xdd, 0x00, 0x2d, 0xbe, 0xce, 0x81, 0x76, 0x3e, 0x1b, 0x57, 0x7c, 0xbe,
  0xa0, 0xd0, 0x58, 0x3d, 0x58, 0x3d, 0xc0, 0xbd, 0x16, 0x55, 0x21, 0xbe,
  0x60, 0xc1, 0x5c, 0x3c, 0xed, 0x44, 0xe5, 0xbd, 0x04, 0x4d, 0x34, 0xbd,
  0xbc, 0xc2, 0x80, 0xbe, 0x59, 0xea, 0xb3, 0x3e, 0xcb, 0xc7, 0x5a, 0xbe,
  0x63, 0xe7, 0x69, 0x3e, 0x74, 0xba, 0x6c, 0xbe, 0xbc, 0x82, 0x12, 0xbe,
  0xbc, 0xef, 0xc4, 0x3d, 0x3e, 0x23, 0x02, 0x3e, 0x3f, 0x2c, 0x3c, 0xbe,
  0x9a, 0x6c, 0x18, 0xbe, 0x56, 0x76, 0x40, 0xbe, 0x3d, 0xd6, 0x44, 0x3e,
  0x0b, 0x85, 0x89, 0xbe, 0x3e, 0x61, 0x6e, 0xbd, 0xc6, 0x9b, 0x67, 0xbe,
  0x55, 0xe6, 0x0f, 0xbe, 0xed, 0x1c, 0xac, 0x3e, 0x48, 0x21, 0xf4, 0xbd,
  0x7a, 0x62, 0x61, 0x3e, 0x04, 0x9c, 0xc5, 0x3d, 0x21, 0x64, 0x8f, 0x3e,
  0x8a, 0xb6, 0x99, 0x3c, 0x07, 0xc6, 0x8b, 0x3e, 0xd6, 0x8b, 0xf8, 0xbd,
  0xa0, 0xd9, 0xc0, 0x3d, 0x72, 0x46, 0xa6, 0xbe, 0xc8, 0xf4, 0x67, 0x3d,
  0x76, 0x14, 0x98, 0x3d, 0x95, 0x62, 0x1e, 0x3e, 0xfd, 0xb0, 0x86, 0x3e,
  0xe5, 0x41, 0xab, 0x3e, 0x5a, 0xb9, 0x45, 0xbe, 0x0a, 0x2b, 0x8a, 0x3e,
  0x33, 0x8a, 0x97, 0xbe, 0x63, 0xd7, 0x9c, 0xbe, 0x3e, 0xd9, 0x39, 0x3e,
  0xa3, 0x0b, 0x3f, 0xbe, 0xf8, 0x2e, 0xe6, 0x3d, 0xdd, 0x18, 0xa9, 0x3e,
  0x9d, 0x75, 0x9f, 0xbb, 0x94, 0x50, 0x86, 0x3c, 0x7d, 0xa1, 0x86, 0x3e,
  0xe2, 0xeb, 0x32, 0x3e, 0x8e, 0x62, 0xa9, 0x3e, 0x83, 0x04, 0x79, 0x3d,
  0x35, 0xcf, 0xd1, 0xbc, 0x9d, 0x3d, 0x78, 0xbd, 0xc6, 0x54, 0x9f, 0x3e,
  0xa8, 0x2f, 0x69, 0xbe, 0x51, 0x66, 0x86, 0x3e, 0x8e, 0x82, 0x69, 0xbe,
  0x5a, 0xc8, 0x81, 0xbe, 0xda, 0x03, 0x83, 0xbc, 0x14, 0xe2, 0x06, 0x3e,
  0x47, 0xb9, 0xa6, 0x3c, 0xb2, 0x5b, 0x99, 0x3e, 0x16, 0xa8, 0x0d, 0xbe,
  0x38, 0x4b, 0xf9, 0x3d, 0x38, 0xf0, 0x41, 0x3e, 0x99, 0x0e, 0x2e, 0x3e,
  0x00, 0xcc, 0xb0, 0xbd, 0x4c, 0x1f, 0xd4, 0x3c, 0xb0, 0x24, 0x07, 0x3d,
  0xf8, 0xa7, 0x56, 0xbe, 0x0d, 0x8a, 0xc5, 0x3c, 0xa0, 0x12, 0x87, 0x3d,
  0x76, 0x32, 0xff, 0xbd, 0xc5, 0x81, 0x98, 0xbe, 0x0a, 0xd6, 0x51, 0xbe,
  0xea, 0xa4, 0xf2, 0x3d, 0xea, 0xee, 0x42, 0x3e, 0xd3, 0xb0, 0xe0, 0x3d,
  0x91, 0x2f, 0xa8, 0x3d, 0xde, 0x6f, 0x55, 0xbe, 0x68, 0x1a, 0x01, 0x3e,
  0x09, 0x5b, 0xda, 0xbd, 0x21, 0x99, 0xac, 0x3e, 0xc4, 0x5a, 0x58, 0x3e,
  0x90, 0xe9, 0x80, 0xbe, 0xc0, 0x73, 0x49, 0x3d, 0xbe, 0xc0, 0xab, 0xbe,
  0x59, 0x7e, 0x06, 0xbe, 0x2c, 0x07, 0xac, 0x3d, 0xc5, 0x0a, 0x81, 0xbe,
  0x7d, 0x19, 0xb2, 0xbe, 0x30, 0x89, 0x2e, 0xbe, 0xa3, 0xef, 0x9b, 0x3e,
  0x63, 0x75, 0x2b, 0x3e, 0xe5, 0xe7, 0xd8, 0xbd, 0x02, 0x6e, 0xb7, 0xbd,
  0x51, 0x31, 0x43, 0x3d, 0x3d, 0x52, 0xad, 0xbd, 0x14, 0x16, 0xe2, 0x3d,
  0xf6, 0xd3, 0x9c, 0xbe, 0x53, 0x84, 0x04, 0xbe, 0x0a, 0x08, 0x22, 0x3e,
  0xc2, 0xf1, 0x6f, 0xbe, 0xb8, 0xd2, 0x8f, 0xbe, 0xa7, 0xd1, 0xd7, 0x3d,
  0xf5, 0xe0, 0xc2, 0xbc, 0x3d, 0xfc, 0xae, 0x3e, 0x40, 0x6b, 0x7c, 0xbe,
  0x9a, 0x08, 0xa9, 0xbe, 0x32, 0xbd, 0xd1, 0x3d, 0x60, 0x8e, 0xa1, 0xbe,
  0x5e, 0xcd, 0x36, 0x3e, 0x6c, 0x28, 0x77, 0xbe, 0xd0, 0x40, 0xd9, 0x3d,
  0xd6, 0x6a, 0x0d, 0xbe, 0xe6, 0x40, 0x55, 0xbe, 0x09, 0x81, 0x9a, 0xbe,
  0xa0, 0x8b, 0xc3, 0xbc, 0x21, 0x97, 0x0e, 0xbe, 0x40, 0xbf, 0xd6, 0xbd,
  0x60, 0x14, 0x87, 0x3e, 0xbc, 0xc8, 0xa3, 0x3d, 0x81, 0xc0, 0xaa, 0xbe,
  0x6c, 0x51, 0x18, 0xbe, 0xe0, 0x03, 0xcf, 0xbc, 0xd1, 0x5a, 0xac, 0x3d,
  0x45, 0x35, 0x9d, 0xbe, 0x66, 0xa5, 0x52, 0x3e, 0x96, 0x4d, 0x4a, 0x3e,
  0xa0, 0x8a, 0x8f, 0x3d, 0x65, 0x8c, 0x12, 0x3e, 0xf0, 0xe0, 0xb4, 0x3b,
  0xcf, 0xa8, 0xc9, 0xbe, 0xd6, 0xf9, 0x60, 0xbe, 0xf0, 0x41, 0xe9, 0xbc,
  0xb6, 0xc2, 0xa6, 0xbe, 0x23, 0x4c, 0x23, 0x3e, 0x81, 0x1a, 0x02, 0xbe,
  0xb5, 0x03, 0x83, 0xbe, 0x8a, 0xd5, 0x31, 0x3e, 0xca, 0x70, 0x96, 0xbe,
  0x97, 0x9f, 0x98, 0xbe, 0xd1, 0xbb, 0x8b, 0x3e, 0x6f, 0xb9, 0xcc, 0x3c,
  0x96, 0xd5, 0x60, 0xbe, 0x68, 0x52, 0xcf, 0x3d, 0x98, 0x01, 0x36, 0x3c,
  0xdb, 0x86, 0x1e, 0xbe, 0x5e, 0x1b, 0x93, 0xbe, 0x6e, 0x69, 0x99, 0xbe,
  0xd6, 0x93, 0x27, 0x3e, 0x08, 0x3b, 0x2f, 0xbd, 0x50, 0x62, 0x1f, 0x3e,
  0x6c, 0x24, 0x8e, 0xbd, 0x63, 0x34, 0x3e, 0xbe, 0xd9, 0x5d, 0x93, 0xbe,
  0x6b, 0x98, 0x9b, 0xbe, 0xf6, 0x88, 0xd9, 0xbd, 0x40, 0xc2, 0x3b, 0xbc,
  0xf0, 0xee, 0x2e, 0x3e, 0xe5, 0x88, 0x63, 0x3e, 0xda, 0x21, 0x98, 0xbe,
  0x8a, 0x2e, 0x61, 0x3e, 0xb2, 0x08, 0x5a, 0x3e, 0x24, 0xb9, 0xa1, 0xbe,
  0x07, 0xbf, 0x16, 0xbe, 0x67, 0xcb, 0xb8, 0x3d, 0xd1, 0xf5, 0x27, 0xbe,
  0xce, 0xfd, 0x96, 0xbe, 0x04, 0xc5, 0x97, 0x3e, 0x91, 0xa9, 0x1b, 0xbe,
  0x88, 0x95, 0x95, 0xbe, 0x54, 0xe2, 0xae, 0x3d, 0x0b, 0x60, 0xc4, 0x3c,
  0x5d, 0x07, 0x89, 0xbd, 0x01, 0x9d, 0x35, 0x3e, 0xfd, 0xb2, 0x6e, 0xbe,
  0xe9, 0x52, 0x64, 0x3e, 0x41, 0x9b, 0xbc, 0x3d, 0x9f, 0xa9, 0x1f, 0x3e,
  0xd6, 0x26, 0x42, 0x3e, 0x6b, 0x9a, 0x5e, 0xbe, 0x94, 0xd6, 0xf3, 0x3d,
  0xc7, 0x4b, 0x9f, 0xbe, 0xa9, 0xd8, 0x98, 0xbd, 0x28, 0x4a, 0x49, 0x3d,
  0x6b, 0x2c, 0xb9, 0xbe, 0x1f, 0x61, 0x6d, 0xbe, 0x8e, 0x61, 0xb6, 0xbe,
  0xb3, 0x75, 0x28, 0x3e, 0x7f, 0xae, 0x75, 0x3e, 0xc3, 0xa6, 0xda, 0xbc,
  0x84, 0x88, 0x4f, 0xbe, 0xf4, 0x00, 0xf7, 0x3d, 0x7d, 0x4a, 0x08, 0x3e,
  0x6b, 0x8e, 0xd3, 0xbd, 0x66, 0x0e, 0x36, 0x3e, 0xf1, 0x45, 0xa4, 0xbc,
  0xbb, 0x10, 0x9d, 0x3e, 0x72, 0x4a, 0x3d, 0xbe, 0x10, 0x0e, 0xf4, 0x3d,
  0x49, 0xd8, 0x24, 0xbe, 0xf3, 0x76, 0x26, 0xbd, 0x04, 0x7e, 0xaf, 0xbc,
  0xf5, 0x66, 0x83, 0xbe, 0xd9, 0xfb, 0x8e, 0x3e, 0x39, 0xb6, 0x99, 0x3e,
  0x8d, 0x73, 0x2b, 0x3e, 0xf2, 0x40, 0xb0, 0x3e, 0x4a, 0xa5, 0xea, 0xbd,
  0x3b, 0xbf, 0x83, 0x3e, 0xbe, 0x10, 0xee, 0x3c, 0x15, 0x46, 0x20, 0xbe,
  0x22, 0xbb, 0x93, 0x3e, 0x5c, 0x2b, 0xa1, 0xbe, 0xe7, 0x4d, 0x2e, 0x3c,
  0xef, 0x2f, 0x1f, 0xbd, 0x60, 0xcf, 0xae, 0xbe, 0x59, 0x30, 0x9d, 0xbe,
  0x3c, 0x9e, 0x31, 0xbe, 0xc2, 0x98, 0xac, 0x3e, 0x19, 0x28, 0x8b, 0x3d,
  0xa6, 0xaf, 0x9f, 0x3e, 0x53, 0x35, 0x5f, 0xbe, 0x76, 0x5c, 0x4c, 0xbd,
  0x7f, 0x0b, 0x32, 0xbe, 0x9e, 0xe8, 0x69, 0xbe, 0xe0, 0xcd, 0x0c, 0xbc,
  0x87, 0x50, 0x18, 0x3e, 0x51, 0x7f, 0xb6, 0x3e, 0xce, 0x25, 0x85, 0xba,
  0x32, 0x5d, 0x48, 0xbe, 0x71, 0x40, 0x7e, 0x3e, 0x35, 0xd6, 0xa2, 0x3e,
  0xe7, 0xa7, 0x41, 0x3e, 0xb1, 0x80, 0xa3, 0x3e, 0x3e, 0xdb, 0x60, 0x3e,
  0x82, 0x68, 0xf5, 0x3d, 0x32, 0xbb, 0xc7, 0x3d, 0x32, 0x08, 0x01, 0x3e,
  0xde, 0x25, 0x8e, 0xbe, 0x9e, 0x3a, 0x66, 0x3e, 0x37, 0x88, 0xf0, 0xbd,
  0xba, 0x91, 0x42, 0xbe, 0x7d, 0x66, 0x14, 0x3e, 0x9d, 0x1b, 0xac, 0x3e,
  0xf4, 0xe5, 0x82, 0xbe, 0x96, 0xcb, 0x8c, 0x3e, 0x57, 0xe7, 0xb9, 0x3d,
  0xa0, 0xf4, 0xb0, 0x3c, 0x23, 0x49, 0x2e, 0x3e, 0xa4, 0xcb, 0x86, 0x3e,
  0x57, 0xd3, 0xe3, 0xbe, 0x95, 0xcd, 0x2a, 0xbe, 0xc2, 0x3e, 0xdb, 0xbd,
  0xac, 0x4d, 0x8a, 0xbb, 0xbb, 0x3a, 0x58, 0x3e, 0x99, 0xea, 0xad, 0xbe,
  0x58, 0x83, 0x1d, 0xbe, 0xdc, 0x58, 0xb6, 0xbd, 0x36, 0x72, 0x1e, 0x3d,
  0xff, 0x67, 0x88, 0x3e, 0x06, 0xcb, 0x5d, 0x3d, 0x4f, 0x5d, 0x82, 0xbe,
  0xf3, 0x33, 0xd2, 0xbd, 0xe3, 0x1a, 0x54, 0x3e, 0xd9, 0x6c, 0x87, 0xbe,
  0x98, 0x2a, 0x5c, 0x3e, 0xc2, 0x45, 0x85, 0xbe, 0xd0, 0x6a, 0x84, 0x3e,
  0xee, 0xa4, 0x0c, 0xbe, 0xb3, 0xef, 0x99, 0x3c, 0x82, 0xf3, 0xff, 0xff,
  0x04, 0x00, 0x00, 0x00, 0xc0, 0x01, 0x00, 0x00, 0x30, 0x5c, 0xd8, 0x3e,
  0x3c, 0x79, 0xe7, 0xbd, 0xa3, 0x47, 0x3b, 0x3e, 0x66, 0xbc, 0xb9, 0xbe,
  0x83, 0x1e, 0x8a, 0x3d, 0x5b, 0xd2, 0x4f, 0xbe, 0xca, 0x4c, 0xc3, 0x3e,
  0x7c, 0x7e, 0xd1, 0x3e, 0x55, 0xfa, 0x69, 0x3e, 0x58, 0x08, 0x95, 0x3e,
  0x3e, 0x2d, 0xaf, 0xbd, 0x40, 0x46, 0xae, 0xbd, 0xa4, 0x71, 0xee, 0x3e,
  0xb0, 0x49, 0xb3, 0x3e, 0xe9, 0x42, 0x6b, 0x3e, 0x44, 0x48, 0xd4, 0xbe,
  0xe0, 0xc8, 0xa2, 0x3e, 0x95, 0xca, 0x57, 0xbe, 0xea, 0xe0, 0x3e, 0xbe,
  0xb0, 0x60, 0xbf, 0xbe, 0xb7, 0x6b, 0xb1, 0x3e, 0x52, 0xa5, 0xc5, 0xbe,
  0x55, 0x12, 0x73, 0xbe, 0x21, 0xcf, 0x42, 0x3e, 0x25, 0x9e, 0xa8, 0xbe,
  0x43, 0x5f, 0x7d, 0xbe, 0xa8, 0x68, 0x38, 0x3e, 0x5f, 0x74, 0xea, 0xbe,
  0xcb, 0x1d, 0xe3, 0xbe, 0x1b, 0x01, 0xf9, 0xbc, 0xab, 0x08, 0x82, 0x3d,
  0xfc, 0x73, 0x54, 0x3e, 0x88, 0x5b, 0x34, 0x3c, 0x07, 0xd8, 0xed, 0xbe,
  0x65, 0x1a, 0xbc, 0xbd, 0x06, 0x0e, 0x6a, 0xbe, 0xf0, 0xee, 0x16, 0x3e,
  0x58, 0x3a, 0xa0, 0x3e, 0xf0, 0xfc, 0xc2, 0x3d, 0x22, 0x52, 0x68, 0xbe,
  0x9e, 0x0f, 0x97, 0xbe, 0xb5, 0x7a, 0x56, 0xbe, 0xcb, 0x67, 0x94, 0xbe,
  0x1f, 0x09, 0x8a, 0xbc, 0xb8, 0xe2, 0xbf, 0xbd, 0xf2, 0x72, 0xf3, 0x3e,
  0xe0, 0x99, 0x9b, 0x3e, 0xf7, 0x02, 0xc8, 0xbe, 0xaf, 0x58, 0x20, 0xbe,
  0xab, 0x5b, 0x2c, 0x3e, 0x48, 0x76, 0xed, 0xbe, 0xa6, 0x94, 0x5e, 0xbe,
  0x24, 0xc8, 0x3a, 0x3e, 0x1f, 0x19, 0xef, 0xbe, 0x8c, 0xeb, 0x14, 0xbc,
  0xeb, 0xa4, 0x2e, 0x3d, 0x15, 0x26, 0x5a, 0xbe, 0xa9, 0x0b, 0xd5, 0xbe,
  0x56, 0xd7, 0xf0, 0xbd, 0xd6, 0x69, 0x98, 0x3e, 0x93, 0x6f, 0xf3, 0x3e,
  0x91, 0x53, 0x52, 0xbd, 0xdc, 0x01, 0x9a, 0x3e, 0x66, 0x41, 0x86, 0xbd,
  0xa7, 0xb8, 0x08, 0x3e, 0xb5, 0x32, 0xc1, 0xbd, 0x19, 0x4a, 0xe2, 0xbe,
  0x93, 0x04, 0xb3, 0xbc, 0xb4, 0x2b, 0xd6, 0xbe, 0x87, 0x22, 0x03, 0xbf,
  0x67, 0x28, 0xff, 0xbd, 0x9e, 0x8a, 0x50, 0xbe, 0xbf, 0x7f, 0x00, 0xbe,
  0xb4, 0x0f, 0xd8, 0x3e, 0x3a, 0xfa, 0xa0, 0x3e, 0x6e, 0x7e, 0xdf, 0xbe,
  0x23, 0x05, 0x88, 0x3e, 0x00, 0xd8, 0xc7, 0x3e, 0x81, 0x05, 0xaf, 0xbe,
  0x73, 0x00, 0xbc, 0x3e, 0xc1, 0x5d, 0xf3, 0x3e, 0xf8, 0x55, 0x40, 0xbe,
  0x22, 0x0d, 0xdc, 0xbe, 0x74, 0x4f, 0x15, 0x3e, 0xf4, 0x60, 0x3f, 0x3d,
  0x9d, 0x5e, 0x87, 0xbe, 0xc2, 0x3c, 0x2c, 0x3d, 0x50, 0xf7, 0x77, 0x3e,
  0x4e, 0xe5, 0x29, 0x3e, 0xfb, 0xa1, 0x85, 0x3c, 0x72, 0xb4, 0x8f, 0xbe,
  0xe8, 0xac, 0x04, 0x3e, 0x95, 0xce, 0xa3, 0xbe, 0xa7, 0x71, 0xb2, 0xbd,
  0x47, 0x54, 0x78, 0xbc, 0x25, 0xea, 0x13, 0x3e, 0xbf, 0x49, 0xac, 0x3e,
  0x57, 0xf8, 0x2e, 0x3e, 0x76, 0xbc, 0xac, 0x3e, 0x1d, 0xe2, 0xb3, 0xbe,
  0x7e, 0x60, 0x0f, 0xbe, 0x17, 0x7b, 0xb4, 0xba, 0x95, 0xe9, 0x7c, 0x3e,
  0x2c, 0x63, 0xfa, 0x3e, 0x0e, 0x58, 0xa1, 0x3e, 0xc0, 0xf9, 0x74, 0x3e,
  0x4b, 0xa5, 0x97, 0x3e, 0xc0, 0x1f, 0xf0, 0x3e, 0x4c, 0x0b, 0x64, 0x3e,
  0x91, 0xcb, 0xc7, 0x3c, 0x9d, 0x66, 0x9f, 0xbc, 0x74, 0x9f, 0x37, 0xbe,
  0x4e, 0xf5, 0xff, 0xff, 0x04, 0x00, 0x00, 0x00, 0x1c, 0x00, 0x00, 0x00,
  0x6b, 0x34, 0x22, 0x40, 0x8f, 0x87, 0xea, 0xbe, 0xe2, 0xa6, 0x20, 0xbf,
  0xa7, 0x7d, 0xfd, 0xbe, 0xe2, 0xdd, 0x8f, 0x3d, 0x4b, 0x4e, 0x49, 0xbe,
  0xbe, 0x9e, 0xb4, 0xbf, 0x76, 0xf5, 0xff, 0xff, 0x04, 0x00, 0x00, 0x00,
  0x40, 0x00, 0x00, 0x00, 0xc1, 0x31, 0x96, 0x3f, 0xae, 0x16, 0xe8, 0xbd,
  0xc6, 0x0e, 0x88, 0xbd, 0x53, 0xdc, 0xde, 0xbe, 0xe9, 0x75, 0x7d, 0xbd,
  0x81, 0xb1, 0x01, 0xbd, 0x6f, 0xa0, 0x8e, 0xbc, 0xca, 0x5a, 0x25, 0xbc,
  0xfb, 0xdf, 0xbf, 0xbc, 0x25, 0x7a, 0xb1, 0x3d, 0x26, 0x2e, 0x8b, 0xbf,
  0x0a, 0x19, 0x80, 0xbd, 0xa8, 0xf7, 0xf9, 0xbb, 0x94, 0xa7, 0x87, 0x3f,
  0x06, 0x2f, 0xca, 0x3e, 0xc7, 0x6f, 0x25, 0xbf, 0xc2, 0xf5, 0xff, 0xff,
  0x04, 0x00, 0x00, 0x00, 0x80, 0x00, 0x00, 0x00, 0x1e, 0x14, 0x01, 0xbd,
  0x59, 0xa8, 0xcf, 0xbc, 0x3b, 0xff, 0x87, 0xbe, 0x35, 0x6f, 0xfa, 0x3e,
  0x35, 0x49, 0x62, 0xbc, 0xb9, 0xc0, 0x9f, 0xbb, 0x8d, 0x58, 0x0c, 0xbd,
  0x24, 0xf5, 0x01, 0xbd, 0x9a, 0x8b, 0xc7, 0xbd, 0x00, 0x00, 0x00, 0x00,
  0xa4, 0x22, 0x9d, 0xbf, 0xfb, 0xee, 0x83, 0xbb, 0x56, 0xb0, 0x6c, 0xbf,
  0x85, 0xdc, 0x04, 0x3f, 0xb4, 0x44, 0x89, 0x3e, 0xc2, 0x35, 0x8f, 0x3d,
  0x04, 0x8a, 0x91, 0xbe, 0x5e, 0x67, 0x1d, 0xbd, 0x42, 0xeb, 0x8b, 0xbd,
  0xd1, 0xcb, 0xb8, 0xbd, 0xc1, 0x93, 0xa6, 0x3f, 0x87, 0x12, 0x6b, 0xbf,
  0x37, 0xbc, 0x38, 0x3e, 0x00, 0x00, 0x00, 0x00, 0x08, 0xdd, 0x66, 0x3e,
  0xc4, 0x49, 0x0b, 0xbe, 0x13, 0x63, 0x45, 0xbf, 0x11, 0xf5, 0x36, 0xbc,
  0x00, 0x00, 0x00, 0x00, 0xc4, 0x0f, 0x18, 0xbc, 0x9d, 0xcd, 0x6d, 0xbb,
  0x1c, 0x2c, 0xcd, 0x3d, 0x4e, 0xf6, 0xff, 0xff, 0x04, 0x00, 0x00, 0x00,
  0x00, 0x01, 0x00, 0x00, 0x00, 0x00, 0x00, 0x00, 0xe3, 0x83, 0xd8, 0xbb,
  0x6c, 0x11, 0xda, 0x3c, 0xf1, 0x5b, 0xef, 0xbe, 0x8d, 0x51, 0x51, 0xbe,
  0xca, 0x5f, 0x32, 0xbe, 0x63, 0xa3, 0x42, 0xbd, 0x13, 0xa7, 0x9e, 0x3f,
  0x00, 0x00, 0x00, 0x00, 0xa3, 0x11, 0xd8, 0xbe, 0xab, 0xb0, 0xc4, 0xbb,
  0x9a, 0x06, 0x82, 0xbf, 0x43, 0xc8, 0x7c, 0xbf, 0x67, 0x41, 0xec, 0xbe,
  0x00, 0x00, 0x00, 0x00, 0xd1, 0x21, 0xca, 0xbe, 0x8c, 0x12, 0x0e, 0xbf,
  0x62, 0xf6, 0x14, 0x3e, 0x61, 0xdd, 0x0a, 0x3f, 0x00, 0x00, 0x00, 0x00,
  0x23, 0x53, 0xf8, 0xbd, 0xf5, 0x26, 0xa3, 0x3e, 0x11, 0x7b, 0x1c, 0x3f,
  0xf5, 0x5f, 0x8f, 0xbf, 0x62, 0xf8, 0x71, 0xbe, 0xda, 0xc7, 0x0c, 0xbd,
  0x2a, 0x2d, 0x80, 0xbf, 0xf0, 0xc9, 0x1b, 0xbd, 0x1a, 0x70, 0x26, 0x3f,
  0x00, 0x00, 0x00, 0x00, 0xf5, 0x3d, 0x83, 0xbf, 0x00, 0x00, 0x00, 0x00,
  0x00, 0x00, 0x00, 0x00, 0x00, 0x00, 0x00, 0x00, 0x11, 0x61, 0x96, 0xbd,
  0x77, 0x01, 0x60, 0x3f, 0x9d, 0xb7, 0x61, 0xbf, 0x02, 0xc5, 0xbe, 0xbe,
  0xcd, 0xac, 0x8a, 0xbc, 0x00, 0x00, 0x00, 0x00, 0x3a, 0xf5, 0xca, 0x3e,
  0xc1, 0xba, 0x69, 0x3f, 0x8c, 0x6f, 0x80, 0xbc, 0xdc, 0x53, 0x95, 0xbf,
  0x3c, 0xfe, 0x25, 0xbd, 0xe1, 0xb2, 0x24, 0x3d, 0xc7, 0xef, 0x03, 0x3f,
  0x00, 0x00, 0x00, 0x00, 0x04, 0x5a, 0x1b, 0xbf, 0x64, 0x35, 0x76, 0xbc,
  0x0e, 0x4a, 0x53, 0x3c, 0x00, 0x00, 0x00, 0x00, 0x57, 0xa0, 0xf2, 0xbc,
  0xcf, 0x4c, 0xc4, 0xbd, 0x63, 0x27, 0xb0, 0xbc, 0xbd, 0x79, 0x97, 0x3d,
  0x4f, 0x11, 0x79, 0xbf, 0xe0, 0x2d, 0xf3, 0x3b, 0xa0, 0x0a, 0x41, 0x3f,
  0x67, 0x30, 0x82, 0xbd, 0x00, 0x00, 0x00, 0x00, 0x8d, 0xb5, 0x7d, 0x3f,
  0x00, 0x00, 0x00, 0x00, 0x00, 0x00, 0x00, 0x00, 0x5a, 0xf7, 0xff, 0xff,
  0x04, 0x00, 0x00, 0x00, 0x00, 0x08, 0x00, 0x00, 0x2a, 0xe7, 0xb9, 0xbd,
  0x22, 0x99, 0x8b, 0xbe, 0x29, 0x51, 0x0a, 0xbe, 0xdc, 0xb1, 0x62, 0x3e,
  0x60, 0x4e, 0x92, 0x3e, 0x1c, 0xce, 0xfc, 0x3d, 0x5e, 0xb2, 0x2f, 0x3e,
  0x3d, 0x86, 0x92, 0xbe, 0x01, 0x14, 0xfe, 0xbd, 0xc7, 0x52, 0x42, 0xbe,
  0x12, 0x0a, 0xb9, 0xbc, 0xf7, 0xba, 0x26, 0x3e, 0x3b, 0x02, 0x11, 0xbd,
  0x68, 0xce, 0x8d, 0x3e, 0x52, 0xea, 0xbd, 0x3d, 0x23, 0xf7, 0x13, 0xbe,
  0x57, 0xd1, 0x08, 0xbe, 0x80, 0x4b, 0x5e, 0x3d, 0x3c, 0xef, 0x46, 0x3d,
  0x29, 0x6c, 0xa8, 0xbe, 0x99, 0xea, 0x80, 0xbe, 0xfd, 0xf9, 0x3d, 0xbe,
  0x2d, 0xcc, 0x1f, 0xbe, 0xf0, 0x4d, 0xd8, 0x3d, 0x29, 0x63, 0x59, 0x3e,
  0x3b, 0xb0, 0x71, 0x3e, 0x1e, 0x2d, 0x88, 0xbe, 0x99, 0x13, 0xa8, 0x3d,
  0x78, 0xb2, 0xe0, 0x3d, 0x1b, 0x4d, 0xfd, 0xbc, 0xfd, 0x40, 0x31, 0xbe,
  0x46, 0x42, 0xaa, 0xbb, 0xd1, 0x93, 0x42, 0x3e, 0xa4, 0xe9, 0x3a, 0x3e,
  0xb1, 0x0c, 0xda, 0x3d, 0x34, 0xb9, 0xa8, 0xbe, 0xd6, 0x71, 0x3a, 0x3c,
  0xe0, 0x7c, 0x81, 0x3e, 0x50, 0xb1, 0x01, 0x3e, 0x29, 0x7d, 0x74, 0xbe,
  0x10, 0x33, 0x50, 0x3d, 0x3f, 0x12, 0xe7, 0xbd, 0x4e, 0x8e, 0x7e, 0x3e,
  0x99, 0xb8, 0x5e, 0xbe, 0xd8, 0xc3, 0x98, 0xbe, 0x43, 0x12, 0x13, 0x3c,
  0x89, 0x5a, 0x99, 0x3d, 0xd8, 0x32, 0xe3, 0x3c, 0x00, 0x16, 0xb6, 0xbd,
  0xc2, 0x4f, 0xe1, 0x3c, 0xc7, 0x8c, 0x07, 0x3d, 0x0d, 0xb5, 0x74, 0xbe,
  0xc6, 0x14, 0x66, 0xbd, 0xcf, 0x87, 0x03, 0x3e, 0x4d, 0xab, 0x56, 0xbd,
  0x70, 0xfe, 0x47, 0xbd, 0x32, 0xc0, 0x40, 0x3e, 0x34, 0x3f, 0xa8, 0x3d,
  0x3c, 0xd9, 0x51, 0xbd, 0xa5, 0xf5, 0x86, 0xbe, 0x6d, 0x4b, 0xf9, 0x3b,
  0x18, 0xb7, 0xb9, 0xbe, 0x57, 0x49, 0x12, 0xbf, 0x6d, 0xfa, 0x95, 0xbd,
  0x92, 0xa7, 0x5e, 0xbe, 0xfa, 0xc9, 0xbd, 0xbd, 0x00, 0x10, 0xf3, 0x3b,
  0x3c, 0x69, 0x4b, 0xbd, 0xf2, 0x4d, 0x34, 0xbe, 0x48, 0x0f, 0x2b, 0x3d,
  0x52, 0x53, 0x91, 0x3e, 0xd0, 0xaa, 0x3e, 0xbe, 0xd3, 0xaf, 0xab, 0x3c,
  0xe4, 0xc0, 0x22, 0xbb, 0xe0, 0x77, 0x5c, 0xbe, 0xa4, 0xdc, 0x77, 0x3e,
  0x87, 0xcc, 0xf9, 0xbd, 0x40, 0xfb, 0xec, 0x3b, 0x33, 0x3f, 0x10, 0xbe,
  0xee, 0x46, 0x1b, 0x3e, 0x1c, 0x0d, 0x0e, 0x3d, 0x02, 0x9a, 0x10, 0xbe,
  0xdb, 0x22, 0x75, 0xbe, 0xb1, 0x4d, 0x66, 0x3e, 0x62, 0xdd, 0xe9, 0xbd,
  0x99, 0x29, 0x82, 0xbe, 0x54, 0x44, 0x5f, 0x3e, 0xb5, 0x6c, 0x47, 0xbe,
  0xca, 0xc3, 0x2f, 0x3e, 0xec, 0x1e, 0xf3, 0x3d, 0xb2, 0x29, 0x62, 0xbe,
  0x5d, 0x79, 0x7b, 0x3d, 0x6c, 0x41, 0x80, 0xbe, 0x47, 0x36, 0x2c, 0x3f,
  0xf4, 0xac, 0x31, 0x3f, 0xcb, 0xa6, 0x1f, 0x3e, 0xc8, 0xda, 0x75, 0xbd,
  0xc2, 0x04, 0x89, 0x3e, 0xf0, 0xf0, 0x98, 0xbe, 0xb6, 0x90, 0x36, 0xbd,
  0x63, 0x22, 0xa9, 0x3d, 0xe9, 0xd6, 0x65, 0x3e, 0xa8, 0x54, 0xc8, 0xbe,
  0x71, 0xd1, 0x26, 0xbf, 0x61, 0x64, 0x36, 0x3e, 0x2e, 0x12, 0xdd, 0x3d,
  0x0d, 0xee, 0x4e, 0xbd, 0x1c, 0x51, 0x71, 0xbb, 0xc7, 0xd2, 0xaa, 0x3e,
  0x7d, 0xef, 0x1e, 0x3d, 0x03, 0x1d, 0x23, 0x3f, 0x50, 0xba, 0xc0, 0x3d,
  0x40, 0x8d, 0x65, 0xbc, 0x06, 0xdb, 0x90, 0xbd, 0xbb, 0x79, 0x8c, 0xbe,
  0x24, 0xc0, 0x8c, 0x3d, 0xc0, 0x8b, 0x66, 0x3e, 0x88, 0x39, 0x70, 0x3e,
  0x2c, 0x20, 0xe8, 0xbd, 0x60, 0xb4, 0x09, 0xbe, 0xd7, 0xff, 0x0a, 0xbe,
  0x0d, 0xc6, 0xfd, 0x3c, 0xd1, 0xb9, 0xa6, 0xbd, 0xe7, 0x26, 0x5a, 0x3e,
  0x15, 0x08, 0xcc, 0x3e, 0xf4, 0x12, 0xb9, 0xbd, 0xfb, 0x20, 0x05, 0x3f,
  0xa7, 0xc9, 0xc3, 0x3e, 0xad, 0x0e, 0x75, 0x3e, 0x62, 0xd2, 0x3b, 0xbe,
  0xc1, 0xc1, 0x8c, 0x3e, 0xd8, 0xed, 0x8e, 0x3d, 0x50, 0x2f, 0x6b, 0xbe,
  0x80, 0x2f, 0xb9, 0xbe, 0x63, 0x84, 0x96, 0x3d, 0xc3, 0x2b, 0xbd, 0xbd,
  0x77, 0xa1, 0x82, 0x3e, 0x58, 0x6e, 0xa8, 0xbe, 0x44, 0xb8, 0x39, 0x3d,
  0xbe, 0x22, 0xe0, 0xbc, 0xef, 0x36, 0x80, 0x3e, 0x17, 0x7a, 0x7e, 0x3d,
  0x9d, 0x97, 0xd8, 0xbe, 0x32, 0x60, 0xbf, 0x3e, 0x52, 0xd0, 0x30, 0x3e,
  0x56, 0xae, 0xea, 0x3d, 0x15, 0x5b, 0x21, 0xbd, 0x9e, 0x22, 0xcd, 0x3c,
  0x90, 0xf5, 0xd1, 0xbe, 0xf4, 0x59, 0x9a, 0xbe, 0x52, 0x49, 0x3c, 0xbf,
  0xa3, 0xc1, 0xa6, 0xbe, 0x88, 0x8b, 0xab, 0xbd, 0x81, 0x2f, 0x7d, 0xbe,
  0xc2, 0x87, 0x3f, 0xbe, 0xd8, 0xa0, 0xb8, 0x3d, 0xff, 0x0b, 0x7a, 0xbe,
  0x2e, 0x23, 0x11, 0x3e, 0x3a, 0xb8, 0x12, 0x3e, 0x6c, 0xf8, 0x87, 0x3e,
  0x35, 0x6b, 0x91, 0x3e, 0x63, 0x7b, 0x6a, 0xbe, 0x9d, 0xab, 0x3f, 0x3e,
  0x04, 0xea, 0x90, 0xbe, 0x15, 0x1f, 0x9e, 0x3e, 0x7a, 0xe0, 0x3b, 0x3e,
  0xc0, 0x5e, 0xa8, 0x3e, 0x84, 0x89, 0x50, 0x3e, 0x13, 0x8c, 0x0c, 0x3c,
  0x71, 0xff, 0x97, 0x3d, 0x81, 0x57, 0x8c, 0xbe, 0xd4, 0xbc, 0xef, 0x3d,
  0x3a, 0x8b, 0xa6, 0xbd, 0x58, 0x44, 0x6c, 0xbd, 0x6c, 0x90, 0xec, 0x3d,
  0x68, 0x88, 0x48, 0x3e, 0xa0, 0xb8, 0x39, 0x3e, 0xe9, 0xfe, 0x4b, 0xbe,
  0xe7, 0x9e, 0xd1, 0x3d, 0xf3, 0xf0, 0xc8, 0x3c, 0x36, 0x27, 0x65, 0x3e,
  0x85, 0xc9, 0x58, 0xbd, 0x52, 0x6b, 0x92, 0x3e, 0xc1, 0x90, 0x6c, 0x3e,
  0x63, 0xb8, 0x75, 0xbe, 0x1b, 0x0b, 0x2b, 0x3e, 0x1c, 0x47, 0x34, 0xbd,
  0x0f, 0xd5, 0x31, 0x3c, 0xbe, 0x8d, 0x51, 0x3c, 0x2a, 0x2a, 0x9c, 0x3d,
  0xf5, 0x48, 0xe4, 0x3c, 0xb7, 0x19, 0x9e, 0xbe, 0xdc, 0x68, 0xf6, 0x3d,
  0x25, 0xbf, 0xcd, 0xbc, 0xa9, 0x17, 0x6d, 0x3d, 0xf7, 0x0a, 0x96, 0xbe,
  0x96, 0xad, 0x39, 0xbe, 0xce, 0x8c, 0xcc, 0x3c, 0x63, 0xc0, 0x4d, 0xbe,
  0xf9, 0xc3, 0x2b, 0x3e, 0x27, 0x1a, 0x9d, 0xbe, 0x45, 0x97, 0x81, 0xbd,
  0xf5, 0xf2, 0x8c, 0x3d, 0x70, 0x70, 0x16, 0xbd, 0x63, 0xd5, 0x5b, 0x3e,
  0x8f, 0x35, 0x93, 0x3c, 0x49, 0xb9, 0x16, 0x3d, 0xd9, 0xc0, 0x30, 0xbe,
  0x22, 0xb7, 0xc0, 0xbd, 0xc3, 0xab, 0x0f, 0x3e, 0xd5, 0x3d, 0x0e, 0x3e,
  0x78, 0xe8, 0xce, 0xbd, 0xf0, 0x32, 0x7c, 0xbe, 0xe0, 0x39, 0xb7, 0xbe,
  0xd8, 0x70, 0xd7, 0xbe, 0xd7, 0xf4, 0xb1, 0xbd, 0xc9, 0xca, 0x82, 0x3e,
  0x09, 0x84, 0x1e, 0xbe, 0x53, 0x52, 0xe1, 0xbd, 0xad, 0xa1, 0x22, 0xbe,
  0xee, 0x03, 0xc5, 0xbc, 0xa7, 0xb4, 0x26, 0xbe, 0x0f, 0x0f, 0x80, 0xbe,
  0xb9, 0x51, 0x9b, 0xbe, 0x28, 0xf3, 0xcf, 0x3c, 0xde, 0xe0, 0xc4, 0x3d,
  0xb3, 0x10, 0x19, 0x3e, 0x9b, 0x53, 0xbb, 0xbd, 0x49, 0x82, 0xa7, 0xbd,
  0x22, 0x76, 0xca, 0xbe, 0x40, 0x96, 0xfb, 0x3e, 0x67, 0x57, 0x08, 0x3e,
  0x40, 0xc0, 0xf6, 0xbd, 0x42, 0xb1, 0x11, 0xbe, 0x20, 0x47, 0x3a, 0x3c,
  0x14, 0xf8, 0x48, 0xbe, 0xc0, 0x50, 0x71, 0x3e, 0x6e, 0x8c, 0x53, 0x3e,
  0xf7, 0x39, 0x91, 0xbe, 0xd4, 0xbf, 0x50, 0xbd, 0x17, 0x61, 0x26, 0x3e,
  0xc3, 0x7c, 0x0d, 0x3d, 0x55, 0xa2, 0x2c, 0x3d, 0x8a, 0xbe, 0x11, 0xbe,
  0x16, 0xea, 0x79, 0xbe, 0x6e, 0xc7, 0xa0, 0x3e, 0x8e, 0x34, 0x53, 0x3f,
  0x61, 0x36, 0x96, 0xbd, 0x50, 0x4b, 0x57, 0x3d, 0x50, 0x61, 0x57, 0xbe,
  0x6a, 0x43, 0xf1, 0xbd, 0xa4, 0xe7, 0xf5, 0xbd, 0xa8, 0xa0, 0x12, 0xbd,
  0x80, 0x3c, 0x05, 0xbb, 0x2e, 0xe5, 0x23, 0xbe, 0x3b, 0xfd, 0x08, 0xbe,
  0xe0, 0xd9, 0x12, 0x3c, 0xc0, 0x90, 0x45, 0xbe, 0xdf, 0xd8, 0x6a, 0xbe,
  0x40, 0x79, 0x21, 0xbe, 0x35, 0xd5, 0x91, 0xbe, 0x90, 0xd3, 0xf6, 0x3d,
  0xf0, 0xc6, 0x94, 0xbc, 0x20, 0xa5, 0x0e, 0xbd, 0x04, 0x5e, 0x60, 0xbe,
  0x36, 0x42, 0x12, 0x3e, 0xeb, 0x1a, 0x7c, 0xbe, 0x40, 0xbf, 0x1b, 0x3c,
  0x3c, 0xa4, 0xa6, 0x3d, 0xe4, 0x34, 0xcd, 0x3d, 0xe0, 0xe5, 0x2f, 0x3c,
  0xc6, 0x7c, 0xdb, 0xbd, 0x0d, 0xd5, 0x46, 0xbe, 0xd9, 0x35, 0x7c, 0xbe,
  0xb7, 0xf6, 0x30, 0xbd, 0xcd, 0x87, 0xed, 0x3d, 0xb1, 0x1f, 0x21, 0xbd,
  0x90, 0xfc, 0x6c, 0x3e, 0x34, 0x39, 0xac, 0x3d, 0x6c, 0xd6, 0x35, 0x3e,
  0x48, 0x3a, 0x40, 0x3e, 0x73, 0x38, 0x19, 0x3a, 0xea, 0xfd, 0x6e, 0xbe,
  0x8a, 0x10, 0x60, 0x3d, 0xdb, 0x48, 0x54, 0x3d, 0x68, 0xbb, 0x9e, 0x3c,
  0x9f, 0x63, 0x80, 0x3e, 0xa2, 0xc6, 0xb3, 0x3e, 0x79, 0x29, 0x00, 0x3e,
  0x4e, 0x75, 0xe3, 0x3d, 0x8b, 0xe7, 0x13, 0xbe, 0x15, 0x3c, 0x8b, 0xbd,
  0x06, 0x21, 0x47, 0x3e, 0x44, 0xb7, 0xa9, 0xbe, 0xae, 0xbc, 0x43, 0xbf,
  0xf1, 0x42, 0x7d, 0x3d, 0x5e, 0xf8, 0xe8, 0xbd, 0x62, 0x49, 0x5d, 0x3e,
  0xf0, 0x13, 0x0d, 0xbe, 0xde, 0x4c, 0x40, 0xbe, 0x48, 0x7b, 0x95, 0x3c,
  0x73, 0xd2, 0xd6, 0x3d, 0xe3, 0x60, 0xdc, 0x3e, 0x88, 0xe9, 0x26, 0xbe,
  0xde, 0xb1, 0x8f, 0xbe, 0xcb, 0x72, 0x84, 0x3e, 0x37, 0x70, 0xb3, 0xbd,
  0xa5, 0x85, 0x57, 0xbe, 0xd4, 0x5d, 0x00, 0x3d, 0xf5, 0xd7, 0xd5, 0x3d,
  0x27, 0xc8, 0x95, 0x3d, 0x72, 0x98, 0xc5, 0xbe, 0x12, 0xab, 0x5d, 0xbe,
  0xf0, 0xdd, 0x0c, 0xbd, 0xf5, 0xf1, 0x0e, 0xbe, 0xe6, 0xc1, 0x8a, 0xbe,
  0x9e, 0x6f, 0x80, 0x3e, 0x30, 0xb1, 0xc7, 0x3d, 0xa0, 0x2f, 0xbd, 0xbc,
  0x76, 0x64, 0x1b, 0xbe, 0xa1, 0x6d, 0x2e, 0x3d, 0xbf, 0xc3, 0x1d, 0xbe,
  0xb5, 0xd4, 0xe7, 0x3d, 0x2e, 0xe5, 0x40, 0x3e, 0x5e, 0x2d, 0xbb, 0xbb,
  0x9a, 0x95, 0x82, 0x3e, 0x1d, 0x9c, 0x32, 0xbe, 0x11, 0x53, 0x02, 0x3e,
  0xf9, 0x63, 0x50, 0xbd, 0x12, 0xe0, 0xc7, 0x3c, 0x54, 0xb5, 0x89, 0xbd,
  0x78, 0x3e, 0x90, 0x3c, 0xcf, 0x29, 0x66, 0xbe, 0x2f, 0xff, 0x0f, 0x3c,
  0x1a, 0x11, 0x44, 0x3e, 0x55, 0x07, 0xaa, 0x3d, 0x21, 0x80, 0x72, 0xbe,
  0x2f, 0xf7, 0x8f, 0xbe, 0x74, 0xda, 0xf4, 0x3d, 0x3e, 0xf1, 0x33, 0xbe,
  0x3d, 0x6e, 0x09, 0x3e, 0x52, 0xbc, 0x4c, 0x3e, 0x28, 0x59, 0x80, 0x3e,
  0x58, 0x90, 0xe3, 0x3d, 0xb0, 0x0a, 0xb6, 0x3d, 0xb7, 0x25, 0xb3, 0x3d,
  0xbb, 0x67, 0xa1, 0x3d, 0x5e, 0x16, 0x37, 0xbe, 0x5b, 0x04, 0xc5, 0xbe,
  0x03, 0xbe, 0x5e, 0x3e, 0x6c, 0x10, 0xe6, 0xbc, 0xc8, 0x96, 0x2c, 0xbe,
  0x47, 0x2b, 0x01, 0xbe, 0xe7, 0xed, 0x63, 0xbd, 0x3d, 0x6d, 0x14, 0x3e,
  0x83, 0x02, 0xfc, 0xbe, 0xec, 0xfd, 0x05, 0xbe, 0x26, 0x3f, 0xa8, 0x3e,
  0xcd, 0x3d, 0x3b, 0x3e, 0x3f, 0xc5, 0x2e, 0x3e, 0x23, 0x5c, 0x42, 0xbe,
  0xd0, 0x53, 0x6e, 0x3c, 0x9c, 0x2d, 0x47, 0x3e, 0x4f, 0xa1, 0xdf, 0xbd,
  0x62, 0x80, 0xf0, 0xbb, 0x5f, 0x8e, 0x39, 0x3d, 0x1b, 0x05, 0xa6, 0xbd,
  0x51, 0x1e, 0x03, 0xbe, 0x27, 0xbc, 0x33, 0xbe, 0xe6, 0xa3, 0xb9, 0x3d,
  0x7c, 0xf2, 0x73, 0x3c, 0xe4, 0xc0, 0x3c, 0x3d, 0x75, 0xcf, 0x05, 0x3f,
  0x8f, 0x42, 0xa5, 0xbd, 0xa7, 0xd7, 0xf3, 0x3e, 0x90, 0x8c, 0xb9, 0x3e,
  0xbe, 0x76, 0xb8, 0xbd, 0x18, 0x59, 0x4d, 0xbe, 0x14, 0xcf, 0x3e, 0xbd,
  0xe0, 0x02, 0xa6, 0xbc, 0xad, 0xee, 0x92, 0xbe, 0x70, 0xeb, 0xf8, 0xbc,
  0x4a, 0x2f, 0x7f, 0xbe, 0x08, 0x2f, 0x76, 0xbe, 0xbc, 0x76, 0x80, 0x3d,
  0x8f, 0x74, 0xeb, 0x3d, 0x20, 0x75, 0xa1, 0xbd, 0xdb, 0xfc, 0x8d, 0xbd,
  0x6e, 0x35, 0xad, 0xbe, 0x50, 0x26, 0x05, 0xbf, 0x41, 0x52, 0xbe, 0xbe,
  0x28, 0xf4, 0x54, 0x3d, 0xa6, 0x59, 0xda, 0xbd, 0x52, 0xd4, 0x21, 0xbe,
  0xe9, 0x7d, 0x68, 0xbe, 0x2b, 0xa7, 0x7a, 0x3e, 0x9a, 0x3e, 0x2c, 0x3e,
  0x00, 0x40, 0xdb, 0xbc, 0x7b, 0x4d, 0x09, 0xbe, 0xc6, 0xe9, 0x67, 0xbd,
  0x52, 0x72, 0x16, 0xbe, 0x21, 0x0a, 0x69, 0xbe, 0x7e, 0x74, 0xfc, 0x3d,
  0x82, 0x22, 0x19, 0x3e, 0xd7, 0xfb, 0x86, 0xbe, 0x4f, 0x4e, 0x94, 0x3e,
  0x66, 0x4f, 0xd2, 0x3d, 0xc8, 0xf4, 0x00, 0x3d, 0x1c, 0xd1, 0x33, 0xbe,
  0x00, 0x12, 0x04, 0x3d, 0x0e, 0x15, 0x16, 0xbe, 0x00, 0x11, 0x82, 0x3b,
  0xf8, 0xf3, 0x02, 0xbe, 0x20, 0x59, 0xde, 0xbc, 0xf0, 0x45, 0xd0, 0xbd,
  0x5a, 0x23, 0x57, 0x3e, 0x07, 0xcb, 0x33, 0x3d, 0x5a, 0x1d, 0x3f, 0xbd,
  0x42, 0x99, 0x94, 0x3d, 0x1f, 0xca, 0xa5, 0xbc, 0xfa, 0x9c, 0xc6, 0xbd,
  0xa0, 0x4c, 0x19, 0xbe, 0x1a, 0x37, 0x02, 0xbf, 0xde, 0x92, 0xf2, 0xbe,
  0x25, 0x8e, 0x2b, 0xbe, 0x9b, 0x43, 0x06, 0x3e, 0x70, 0x89, 0xe5, 0xbd,
  0x2c, 0x1d, 0x38, 0xbe, 0x2b, 0x50, 0x12, 0xbe, 0xec, 0x9f, 0xf5, 0xbd,
  0xa5, 0xbc, 0xab, 0x3d, 0x9b, 0x8e, 0xa9, 0x3d, 0xc8, 0x44, 0x1c, 0x3e,
  0x23, 0x93, 0x4c, 0xbe, 0x8f, 0x3a, 0xc2, 0xbd, 0xa9, 0x40, 0xe1, 0xbb,
  0x2b, 0x94, 0x06, 0xbe, 0x10, 0x20, 0x91, 0x3c, 0xc0, 0x20, 0x1c, 0xbe,
  0x70, 0x2f, 0x81, 0x3e, 0xf3, 0x5b, 0x58, 0x3d, 0xfb, 0x7d, 0xd5, 0x3b,
  0xe7, 0x8c, 0x80, 0x3d, 0x91, 0x8d, 0xa2, 0xbd, 0xb1, 0x50, 0x0b, 0x3e,
  0xba, 0x97, 0x22, 0xbc, 0x82, 0xa9, 0x01, 0x3f, 0x8d, 0x1f, 0xed, 0x3d,
  0xaa, 0x38, 0x96, 0xbe, 0x2e, 0xf1, 0xb7, 0x3d, 0xa4, 0xd8, 0x54, 0x3e,
  0x3f, 0xac, 0x1d, 0x3e, 0xd1, 0x0d, 0xd8, 0x3d, 0xae, 0x7a, 0x3c, 0x3d,
  0x71, 0xe8, 0x94, 0x3e, 0x76, 0x25, 0x8e, 0x3d, 0x0b, 0xb4, 0xc4, 0xbd,
  0x5f, 0x06, 0xf8, 0x3d, 0x72, 0xab, 0xc9, 0xbd, 0x28, 0x0e, 0x9a, 0xbe,
  0x89, 0xfc, 0x45, 0xbe, 0x5c, 0xff, 0x84, 0x3d, 0xa0, 0x18, 0x46, 0xbd,
  0x5a, 0xb7, 0x3f, 0xbe, 0xc5, 0x11, 0x4b, 0x3e, 0x7b, 0x6a, 0x4a, 0x3e,
  0xc0, 0x7a, 0x97, 0xbe, 0xbb, 0x20, 0x19, 0xbe, 0xf2, 0xb4, 0x53, 0x3d,
  0xe2, 0xc1, 0x14, 0x3f, 0x11, 0x94, 0xc1, 0xbd, 0x1a, 0x49, 0x81, 0xbe,
  0x48, 0x44, 0x66, 0xbe, 0x2e, 0x7c, 0x12, 0xbe, 0x15, 0x91, 0xea, 0xbd,
  0x62, 0x9d, 0x2b, 0x3e, 0x34, 0x5a, 0x97, 0x3d, 0x76, 0x08, 0x8c, 0x3e,
  0xdf, 0x01, 0x92, 0xbe, 0xf5, 0x78, 0x17, 0xbe, 0xf4, 0x0e, 0x95, 0x3d,
  0xa8, 0x59, 0x3a, 0xbe, 0x3e, 0x94, 0xa4, 0xbd, 0x08, 0x25, 0xa4, 0xbd,
  0x60, 0x8b, 0x9a, 0xbc, 0x52, 0xa7, 0x41, 0x3e, 0x80, 0x76, 0x4f, 0x3c,
  0xec, 0x42, 0x7a, 0x3e, 0x15, 0x4d, 0x2f, 0x3e, 0xa0, 0x4f, 0x8a, 0xbd,
  0x4d, 0xa9, 0x96, 0x3c, 0x39, 0xe7, 0x87, 0x3d, 0x5a, 0xc9, 0x31, 0x3d,
  0xc1, 0x6b, 0x83, 0xbe, 0x5a, 0xec, 0x3d, 0xbe, 0x2c, 0x35, 0x01, 0x3d,
  0x68, 0x76, 0xc9, 0xbd, 0xc8, 0xd9, 0x8f, 0xbd, 0xb6, 0x46, 0x4c, 0xbe,
  0x80, 0xc4, 0x3c, 0x3d, 0xb8, 0x65, 0x46, 0x3d, 0xc4, 0xec, 0x28, 0xbd,
  0x54, 0xdd, 0x27, 0xbd, 0x1c, 0xfe, 0x7a, 0x3e, 0x70, 0xa9, 0xf9, 0x3d,
  0x98, 0xa4, 0x43, 0xbe, 0x8f, 0x7a, 0x93, 0xbe, 0xc8, 0xc5, 0xb9, 0xbd,
  0x8c, 0x47, 0x8a, 0x3e, 0x26, 0x97, 0x58, 0xbe, 0x65, 0x49, 0x62, 0xbe,
  0x76, 0x6a, 0x91, 0x3e, 0xa0, 0xf7, 0xff, 0xff, 0xa4, 0xf7, 0xff, 0xff,
  0x0f, 0x00, 0x00, 0x00, 0x4d, 0x4c, 0x49, 0x52, 0x20, 0x43, 0x6f, 0x6e,
  0x76, 0x65, 0x72, 0x74, 0x65, 0x64, 0x2e, 0x00, 0x01, 0x00, 0x00, 0x00,
  0x14, 0x00, 0x00, 0x00, 0x00, 0x00, 0x0e, 0x00, 0x18, 0x00, 0x14, 0x00,
  0x10, 0x00, 0x0c, 0x00, 0x08, 0x00, 0x04, 0x00, 0x0e, 0x00, 0x00, 0x00,
  0x14, 0x00, 0x00, 0x00, 0x1c, 0x00, 0x00, 0x00, 0x68, 0x01, 0x00, 0x00,
  0x6c, 0x01, 0x00, 0x00, 0x70, 0x01, 0x00, 0x00, 0x04, 0x00, 0x00, 0x00,
  0x6d, 0x61, 0x69, 0x6e, 0x00, 0x00, 0x00, 0x00, 0x05, 0x00, 0x00, 0x00,
  0x10, 0x01, 0x00, 0x00, 0xbc, 0x00, 0x00, 0x00, 0x84, 0x00, 0x00, 0x00,
  0x50, 0x00, 0x00, 0x00, 0x14, 0x00, 0x00, 0x00, 0x00, 0x00, 0x0e, 0x00,
  0x1a, 0x00, 0x14, 0x00, 0x10, 0x00, 0x0c, 0x00, 0x0b, 0x00, 0x04, 0x00,
  0x0e, 0x00, 0x00, 0x00, 0x1c, 0x00, 0x00, 0x00, 0x00, 0x00, 0x00, 0x09,
  0x1c, 0x00, 0x00, 0x00, 0x20, 0x00, 0x00, 0x00, 0x01, 0x00, 0x00, 0x00,
  0x00, 0x00, 0x06, 0x00, 0x08, 0x00, 0x04, 0x00, 0x06, 0x00, 0x00, 0x00,
  0x00, 0x00, 0x80, 0x3f, 0x01, 0x00, 0x00, 0x00, 0x0d, 0x00, 0x00, 0x00,
  0x01, 0x00, 0x00, 0x00, 0x0c, 0x00, 0x00, 0x00, 0x5a, 0xff, 0xff, 0xff,
  0x10, 0x00, 0x00, 0x00, 0x00, 0x00, 0x00, 0x08, 0x0c, 0x00, 0x00, 0x00,
  0x10, 0x00, 0x00, 0x00, 0x6c, 0xf8, 0xff, 0xff, 0x01, 0x00, 0x00, 0x00,
  0x0c, 0x00, 0x00, 0x00, 0x03, 0x00, 0x00, 0x00, 0x0b, 0x00, 0x00, 0x00,
  0x06, 0x00, 0x00, 0x00, 0x05, 0x00, 0x00, 0x00, 0x8a, 0xff, 0xff, 0xff,
  0x10, 0x00, 0x00, 0x00, 0x00, 0x00, 0x00, 0x08, 0x10, 0x00, 0x00, 0x00,
  0x14, 0x00, 0x00, 0x00, 0x7a, 0xff, 0xff, 0xff, 0x00, 0x00, 0x00, 0x01,
  0x01, 0x00, 0x00, 0x00, 0x0b, 0x00, 0x00, 0x00, 0x03, 0x00, 0x00, 0x00,
  0x0a, 0x00, 0x00, 0x00, 0x07, 0x00, 0x00, 0x00, 0x04, 0x00, 0x00, 0x00,
  0xbe, 0xff, 0xff, 0xff, 0x1c, 0x00, 0x00, 0x00, 0x00, 0x00, 0x00, 0x08,
  0x1c, 0x00, 0x00, 0x00, 0x20, 0x00, 0x00, 0x00, 0x0c, 0x00, 0x08, 0x00,
  0x07, 0x00, 0x00, 0x00, 0x00, 0x00, 0x06, 0x00, 0x0c, 0x00, 0x00, 0x00,
  0x00, 0x00, 0x01, 0x01, 0x01, 0x00, 0x00, 0x00, 0x0a, 0x00, 0x00, 0x00,
  0x03, 0x00, 0x00, 0x00, 0x09, 0x00, 0x00, 0x00, 0x08, 0x00, 0x00, 0x00,
  0x03, 0x00, 0x00, 0x00, 0x00, 0x00, 0x0e, 0x00, 0x16, 0x00, 0x00, 0x00,
  0x10, 0x00, 0x0c, 0x00, 0x0b, 0x00, 0x04, 0x00, 0x0e, 0x00, 0x00, 0x00,
  0x18, 0x00, 0x00, 0x00, 0x00, 0x00, 0x00, 0x08, 0x18, 0x00, 0x00, 0x00,
  0x1c, 0x00, 0x00, 0x00, 0x00, 0x00, 0x06, 0x00, 0x08, 0x00, 0x07, 0x00,
  0x06, 0x00, 0x00, 0x00, 0x00, 0x00, 0x00, 0x01, 0x01, 0x00, 0x00, 0x00,
  0x09, 0x00, 0x00, 0x00, 0x03, 0x00, 0x00, 0x00, 0x00, 0x00, 0x00, 0x00,
  0x01, 0x00, 0x00, 0x00, 0x02, 0x00, 0x00, 0x00, 0x01, 0x00, 0x00, 0x00,
  0x0d, 0x00, 0x00, 0x00, 0x01, 0x00, 0x00, 0x00, 0x00, 0x00, 0x00, 0x00,
  0x0e, 0x00, 0x00, 0x00, 0x7c, 0x06, 0x00, 0x00, 0x24, 0x06, 0x00, 0x00,
  0xd0, 0x05, 0x00, 0x00, 0x94, 0x05, 0x00, 0x00, 0x58, 0x05, 0x00, 0x00,
  0x1c, 0x05, 0x00, 0x00, 0xdc, 0x04, 0x00, 0x00, 0x9c, 0x04, 0x00, 0x00,
  0xb4, 0x02, 0x00, 0x00, 0x0c, 0x02, 0x00, 0x00, 0x74, 0x01, 0x00, 0x00,
  0xdc, 0x00, 0x00, 0x00, 0x60, 0x00, 0x00, 0x00, 0x04, 0x00, 0x00, 0x00,
  0xd2, 0xf9, 0xff, 0xff, 0x00, 0x00, 0x00, 0x01, 0x14, 0x00, 0x00, 0x00,
  0x1c, 0x00, 0x00, 0x00, 0x1c, 0x00, 0x00, 0x00, 0x0e, 0x00, 0x00, 0x00,
  0x34, 0x00, 0x00, 0x00, 0x02, 0x00, 0x00, 0x00, 0xff, 0xff, 0xff, 0xff,
  0x07, 0x00, 0x00, 0x00, 0xbc, 0xf9, 0xff, 0xff, 0x1b, 0x00, 0x00, 0x00,
  0x53, 0x74, 0x61, 0x74, 0x65, 0x66, 0x75, 0x6c, 0x50, 0x61, 0x72, 0x74,
  0x69, 0x74, 0x69, 0x6f, 0x6e, 0x65, 0x64, 0x43, 0x61, 0x6c, 0x6c, 0x5f,
  0x31, 0x3a, 0x30, 0x00, 0x02, 0x00, 0x00, 0x00, 0x01, 0x00, 0x00, 0x00,
  0x07, 0x00, 0x00, 0x00, 0x2a, 0xfa, 0xff, 0xff, 0x00, 0x00, 0x00, 0x01,
  0x14, 0x00, 0x00, 0x00, 0x1c, 0x00, 0x00, 0x00, 0x1c, 0x00, 0x00, 0x00,
  0x0d, 0x00, 0x00, 0x00, 0x54, 0x00, 0x00, 0x00, 0x02, 0x00, 0x00, 0x00,
  0xff, 0xff, 0xff, 0xff, 0x07, 0x00, 0x00, 0x00, 0x14, 0xfa, 0xff, 0xff,
  0x38, 0x00, 0x00, 0x00, 0x73, 0x65, 0x71, 0x75, 0x65, 0x6e, 0x74, 0x69,
  0x61, 0x6c, 0x5f, 0x31, 0x2f, 0x64, 0x65, 0x6e, 0x73, 0x65, 0x5f, 0x33,
  0x5f, 0x31, 0x2f, 0x4d, 0x61, 0x74, 0x4d, 0x75, 0x6c, 0x3b, 0x73, 0x65,
  0x71, 0x75, 0x65, 0x6e, 0x74, 0x69, 0x61, 0x6c, 0x5f, 0x31, 0x2f, 0x64,
  0x65, 0x6e, 0x73, 0x65, 0x5f, 0x33, 0x5f, 0x31, 0x2f, 0x41, 0x64, 0x64,
  0x00, 0x00, 0x00, 0x00, 0x02, 0x00, 0x00, 0x00, 0x01, 0x00, 0x00, 0x00,
  0x07, 0x00, 0x00, 0x00, 0xa2, 0xfa, 0xff, 0xff, 0x00, 0x00, 0x00, 0x01,
  0x14, 0x00, 0x00, 0x00, 0x1c, 0x00, 0x00, 0x00, 0x1c, 0x00, 0x00, 0x00,
  0x0c, 0x00, 0x00, 0x00, 0x70, 0x00, 0x00, 0x00, 0x02, 0x00, 0x00, 0x00,
  0xff, 0xff, 0xff, 0xff, 0x10, 0x00, 0x00, 0x00, 0x8c, 0xfa, 0xff, 0xff,
  0x54, 0x00, 0x00, 0x00, 0x73, 0x65, 0x71, 0x75, 0x65, 0x6e, 0x74, 0x69,
  0x61, 0x6c, 0x5f, 0x31, 0x2f, 0x64, 0x65, 0x6e, 0x73, 0x65, 0x5f, 0x32,
  0x5f, 0x31, 0x2f, 0x4d, 0x61, 0x74, 0x4d, 0x75, 0x6c, 0x3b, 0x73, 0x65,
  0x71, 0x75, 0x65, 0x6e, 0x74, 0x69, 0x61, 0x6c, 0x5f, 0x31, 0x2f, 0x64,
  0x65, 0x6e, 0x73, 0x65, 0x5f, 0x32, 0x5f, 0x31, 0x2f, 0x52, 0x65, 0x6c,
  0x75, 0x3b, 0x73, 0x65, 0x71, 0x75, 0x65, 0x6e, 0x74, 0x69, 0x61, 0x6c,
  0x5f, 0x31, 0x2f, 0x64, 0x65, 0x6e, 0x73, 0x65, 0x5f, 0x32, 0x5f, 0x31,
  0x2f, 0x41, 0x64, 0x64, 0x00, 0x00, 0x00, 0x00, 0x02, 0x00, 0x00, 0x00,
  0x01, 0x00, 0x00, 0x00, 0x10, 0x00, 0x00, 0x00, 0x36, 0xfb, 0xff, 0xff,
  0x00, 0x00, 0x00, 0x01, 0x14, 0x00, 0x00, 0x00, 0x1c, 0x00, 0x00, 0x00,
  0x1c, 0x00, 0x00, 0x00, 0x0b, 0x00, 0x00, 0x00, 0x70, 0x00, 0x00, 0x00,
  0x02, 0x00, 0x00, 0x00, 0xff, 0xff, 0xff, 0xff, 0x20, 0x00, 0x00, 0x00,
  0x20, 0xfb, 0xff, 0xff, 0x54, 0x00, 0x00, 0x00, 0x73, 0x65, 0x71, 0x75,
  0x65, 0x6e, 0x74, 0x69, 0x61, 0x6c, 0x5f, 0x31, 0x2f, 0x64, 0x65, 0x6e,
  0x73, 0x65, 0x5f, 0x31, 0x5f, 0x32, 0x2f, 0x4d, 0x61, 0x74, 0x4d, 0x75,
  0x6c, 0x3b, 0x73, 0x65, 0x71, 0x75, 0x65, 0x6e, 0x74, 0x69, 0x61, 0x6c,
  0x5f, 0x31, 0x2f, 0x64, 0x65, 0x6e, 0x73, 0x65, 0x5f, 0x31, 0x5f, 0x32,
  0x2f, 0x52, 0x65, 0x6c, 0x75, 0x3b, 0x73, 0x65, 0x71, 0x75, 0x65, 0x6e,
  0x74, 0x69, 0x61, 0x6c, 0x5f, 0x31, 0x2f, 0x64, 0x65, 0x6e, 0x73, 0x65,
  0x5f, 0x31, 0x5f, 0x32, 0x2f, 0x41, 0x64, 0x64, 0x00, 0x00, 0x00, 0x00,
  0x02, 0x00, 0x00, 0x00, 0x01, 0x00, 0x00, 0x00, 0x20, 0x00, 0x00, 0x00,
  0xca, 0xfb, 0xff, 0xff, 0x00, 0x00, 0x00, 0x01, 0x14, 0x00, 0x00, 0x00,
  0x1c, 0x00, 0x00, 0x00, 0x1c, 0x00, 0x00, 0x00, 0x0a, 0x00, 0x00, 0x00,
  0x68, 0x00, 0x00, 0x00, 0x02, 0x00, 0x00, 0x00, 0xff, 0xff, 0xff, 0xff,
  0x40, 0x00, 0x00, 0x00, 0xb4, 0xfb, 0xff, 0xff, 0x4e, 0x00, 0x00, 0x00,
  0x73, 0x65, 0x71, 0x75, 0x65, 0x6e, 0x74, 0x69, 0x61, 0x6c, 0x5f, 0x31,
  0x2f, 0x64, 0x65, 0x6e, 0x73, 0x65, 0x5f, 0x31, 0x2f, 0x4d, 0x61, 0x74,
  0x4d, 0x75, 0x6c, 0x3b, 0x73, 0x65, 0x71, 0x75, 0x65, 0x6e, 0x74, 0x69,
  0x61, 0x6c, 0x5f, 0x31, 0x2f, 0x64, 0x65, 0x6e, 0x73, 0x65, 0x5f, 0x31,
  0x2f, 0x52, 0x65, 0x6c, 0x75, 0x3b, 0x73, 0x65, 0x71, 0x75, 0x65, 0x6e,
  0x74, 0x69, 0x61, 0x6c, 0x5f, 0x31, 0x2f, 0x64, 0x65, 0x6e, 0x73, 0x65,
  0x5f, 0x31, 0x2f, 0x41, 0x64, 0x64, 0x00, 0x00, 0x02, 0x00, 0x00, 0x00,
  0x01, 0x00, 0x00, 0x00, 0x40, 0x00, 0x00, 0x00, 0x00, 0x00, 0x16, 0x00,
  0x1c, 0x00, 0x18, 0x00, 0x17, 0x00, 0x10, 0x00, 0x0c, 0x00, 0x08, 0x00,
  0x00, 0x00, 0x00, 0x00, 0x00, 0x00, 0x07, 0x00, 0x16, 0x00, 0x00, 0x00,
  0x00, 0x00, 0x00, 0x01, 0x20, 0x00, 0x00, 0x00, 0xb4, 0x01, 0x00, 0x00,
  0x09, 0x00, 0x00, 0x00, 0x00, 0x00, 0x00, 0x09, 0xc0, 0x01, 0x00, 0x00,
  0x0c, 0x00, 0x0c, 0x00, 0x00, 0x00, 0x00, 0x00, 0x08, 0x00, 0x04, 0x00,
  0x0c, 0x00, 0x00, 0x00, 0x08, 0x00, 0x00, 0x00, 0x0c, 0x01, 0x00, 0x00,
  0x20, 0x00, 0x00, 0x00, 0x00, 0x00, 0x00, 0x00, 0x00, 0x00, 0x00, 0x00,
  0x00, 0x00, 0x00, 0x00, 0x00, 0x00, 0x00, 0x00, 0x00, 0x00, 0x00, 0x00,
  0x00, 0x00, 0x00, 0x00, 0x00, 0x00, 0x00, 0x00, 0x00, 0x00, 0x00, 0x00,
  0x00, 0x00, 0x00, 0x00, 0x00, 0x00, 0x00, 0x00, 0x00, 0x00, 0x00, 0x00,
  0x00, 0x00, 0x00, 0x00, 0x00, 0x00, 0x00, 0x00, 0x00, 0x00, 0x00, 0x00,
  0x00, 0x00, 0x00, 0x00, 0x00, 0x00, 0x00, 0x00, 0x00, 0x00, 0x00, 0x00,
  0x00, 0x00, 0x00, 0x00, 0x00, 0x00, 0x00, 0x00, 0x00, 0x00, 0x00, 0x00,
  0x00, 0x00, 0x00, 0x00, 0x00, 0x00, 0x00, 0x00, 0x00, 0x00, 0x00, 0x00,
  0x00, 0x00, 0x00, 0x00, 0x00, 0x00, 0x00, 0x00, 0x00, 0x00, 0x00, 0x00,
  0x00, 0x00, 0x00, 0x00, 0x00, 0x00, 0x00, 0x00, 0x00, 0x00, 0x00, 0x00,
  0x00, 0x00, 0x00, 0x00, 0x00, 0x00, 0x00, 0x00, 0x00, 0x00, 0x00, 0x00,
  0x00, 0x00, 0x00, 0x00, 0x00, 0x00, 0x00, 0x00, 0x00, 0x00, 0x00, 0x00,
  0x00, 0x00, 0x00, 0x00, 0x00, 0x00, 0x00, 0x00, 0x00, 0x00, 0x00, 0x00,
  0x00, 0x00, 0x00, 0x00, 0x00, 0x00, 0x00, 0x00, 0x00, 0x00, 0x00, 0x00,
  0x00, 0x00, 0x00, 0x00, 0x00, 0x00, 0x00, 0x00, 0x00, 0x00, 0x00, 0x00,
  0x00, 0x00, 0x00, 0x00, 0x00, 0x00, 0x00, 0x00, 0x00, 0x00, 0x00, 0x00,
  0x00, 0x00, 0x00, 0x00, 0x00, 0x00, 0x00, 0x00, 0x00, 0x00, 0x00, 0x00,
  0x00, 0x00, 0x00, 0x00, 0x00, 0x00, 0x00, 0x00, 0x00, 0x00, 0x00, 0x00,
  0x00, 0x00, 0x00, 0x00, 0x00, 0x00, 0x00, 0x00, 0x00, 0x00, 0x00, 0x00,
  0x00, 0x00, 0x00, 0x00, 0x00, 0x00, 0x00, 0x00, 0x00, 0x00, 0x00, 0x00,
  0x00, 0x00, 0x00, 0x00, 0x00, 0x00, 0x00, 0x00, 0x00, 0x00, 0x00, 0x00,
  0x00, 0x00, 0x00, 0x00, 0x00, 0x00, 0x00, 0x00, 0x00, 0x00, 0x00, 0x00,
  0x20, 0x00, 0x00, 0x00, 0x5f, 0x41, 0xff, 0x3a, 0x6a, 0xb0, 0x10, 0x3b,
  0x54, 0x47, 0xf8, 0x3a, 0x59, 0x3a, 0x20, 0x3b, 0x5d, 0x99, 0x05, 0x3b,
  0x36, 0xdc, 0x03, 0x3b, 0x1a, 0x5d, 0x0c, 0x3b, 0x16, 0x21, 0x06, 0x3b,
  0xae, 0xe0, 0x06, 0x3b, 0x45, 0x69, 0x00, 0x3b, 0xf6, 0x78, 0x29, 0x3b,
  0x69, 0x4e, 0x15, 0x3b, 0xaf, 0x1f, 0x53, 0x3b, 0xfd, 0x52, 0x34, 0x3b,
  0x6d, 0x1c, 0xfd, 0x3a, 0x5f, 0xa7, 0x1a, 0x3b, 0xd7, 0x67, 0x07, 0x3b,
  0x1e, 0xe9, 0xfe, 0x3a, 0xff, 0x61, 0x6b, 0x3b, 0xd2, 0x6d, 0x11, 0x3b,
  0x57, 0xf2, 0x12, 0x3b, 0xcd, 0x81, 0x08, 0x3b, 0xc4, 0xb4, 0x5a, 0x3b,
  0x18, 0xd4, 0xfd, 0x3a, 0xbc, 0xaf, 0x27, 0x3b, 0xff, 0x9e, 0x29, 0x3b,
  0xeb, 0x5a, 0x1f, 0x3b, 0xfa, 0x6f, 0x04, 0x3b, 0xd0, 0xb1, 0xf3, 0x3a,
  0x6f, 0x71, 0x3d, 0x3b, 0x1b, 0x93, 0x57, 0x3b, 0x6e, 0x69, 0x28, 0x3b,
  0x11, 0x00, 0x00, 0x00, 0x74, 0x66, 0x6c, 0x2e, 0x70, 0x73, 0x65, 0x75,
  0x64, 0x6f, 0x5f, 0x71, 0x63, 0x6f, 0x6e, 0x73, 0x74, 0x00, 0x00, 0x00,
  0x02, 0x00, 0x00, 0x00, 0x20, 0x00, 0x00, 0x00, 0x40, 0x00, 0x00, 0x00,
  0xa6, 0xfe, 0xff, 0xff, 0x00, 0x00, 0x00, 0x01, 0x10, 0x00, 0x00, 0x00,
  0x10, 0x00, 0x00, 0x00, 0x08, 0x00, 0x00, 0x00, 0x1c, 0x00, 0x00, 0x00,
  0x2c, 0xfe, 0xff, 0xff, 0x0f, 0x00, 0x00, 0x00, 0x61, 0x72, 0x69, 0x74,
  0x68, 0x2e, 0x63, 0x6f, 0x6e, 0x73, 0x74, 0x61, 0x6e, 0x74, 0x36, 0x00,
  0x02, 0x00, 0x00, 0x00, 0x10, 0x00, 0x00, 0x00, 0x20, 0x00, 0x00, 0x00,
  0xe2, 0xfe, 0xff, 0xff, 0x00, 0x00, 0x00, 0x01, 0x10, 0x00, 0x00, 0x00,
  0x10, 0x00, 0x00, 0x00, 0x07, 0x00, 0x00, 0x00, 0x1c, 0x00, 0x00, 0x00,
  0x68, 0xfe, 0xff, 0xff, 0x0f, 0x00, 0x00, 0x00, 0x61, 0x72, 0x69, 0x74,
  0x68, 0x2e, 0x63, 0x6f, 0x6e, 0x73, 0x74, 0x61, 0x6e, 0x74, 0x35, 0x00,
  0x02, 0x00, 0x00, 0x00, 0x07, 0x00, 0x00, 0x00, 0x10, 0x00, 0x00, 0x00,
  0x1e, 0xff, 0xff, 0xff, 0x00, 0x00, 0x00, 0x01, 0x10, 0x00, 0x00, 0x00,
  0x10, 0x00, 0x00, 0x00, 0x06, 0x00, 0x00, 0x00, 0x1c, 0x00, 0x00, 0x00,
  0xa4, 0xfe, 0xff, 0xff, 0x0f, 0x00, 0x00, 0x00, 0x61, 0x72, 0x69, 0x74,
  0x68, 0x2e, 0x63, 0x6f, 0x6e, 0x73, 0x74, 0x61, 0x6e, 0x74, 0x34, 0x00,
  0x01, 0x00, 0x00, 0x00, 0x07, 0x00, 0x00, 0x00, 0x56, 0xff, 0xff, 0xff,
  0x00, 0x00, 0x00, 0x01, 0x10, 0x00, 0x00, 0x00, 0x10, 0x00, 0x00, 0x00,
  0x05, 0x00, 0x00, 0x00, 0x1c, 0x00, 0x00, 0x00, 0xdc, 0xfe, 0xff, 0xff,
  0x0f, 0x00, 0x00, 0x00, 0x61, 0x72, 0x69, 0x74, 0x68, 0x2e, 0x63, 0x6f,
  0x6e, 0x73, 0x74, 0x61, 0x6e, 0x74, 0x33, 0x00, 0x01, 0x00, 0x00, 0x00,
  0x10, 0x00, 0x00, 0x00, 0x8e, 0xff, 0xff, 0xff, 0x00, 0x00, 0x00, 0x01,
  0x10, 0x00, 0x00, 0x00, 0x10, 0x00, 0x00, 0x00, 0x04, 0x00, 0x00, 0x00,
  0x1c, 0x00, 0x00, 0x00, 0x14, 0xff, 0xff, 0xff, 0x0f, 0x00, 0x00, 0x00,
  0x61, 0x72, 0x69, 0x74, 0x68, 0x2e, 0x63, 0x6f, 0x6e, 0x73, 0x74, 0x61,
  0x6e, 0x74, 0x32, 0x00, 0x01, 0x00, 0x00, 0x00, 0x20, 0x00, 0x00, 0x00,
  0xc6, 0xff, 0xff, 0xff, 0x00, 0x00, 0x00, 0x01, 0x10, 0x00, 0x00, 0x00,
  0x10, 0x00, 0x00, 0x00, 0x03, 0x00, 0x00, 0x00, 0x1c, 0x00, 0x00, 0x00,
  0x4c, 0xff, 0xff, 0xff, 0x0f, 0x00, 0x00, 0x00, 0x61, 0x72, 0x69, 0x74,
  0x68, 0x2e, 0x63, 0x6f, 0x6e, 0x73, 0x74, 0x61, 0x6e, 0x74, 0x31, 0x00,
  0x01, 0x00, 0x00, 0x00, 0x40, 0x00, 0x00, 0x00, 0x00, 0x00, 0x16, 0x00,
  0x18, 0x00, 0x14, 0x00, 0x00, 0x00, 0x10, 0x00, 0x0c, 0x00, 0x08, 0x00,
  0x00, 0x00, 0x00, 0x00, 0x00, 0x00, 0x07, 0x00, 0x16, 0x00, 0x00, 0x00,
  0x00, 0x00, 0x00, 0x01, 0x10, 0x00, 0x00, 0x00, 0x10, 0x00, 0x00, 0x00,
  0x02, 0x00, 0x00, 0x00, 0x1c, 0x00, 0x00, 0x00, 0x9c, 0xff, 0xff, 0xff,
  0x0e, 0x00, 0x00, 0x00, 0x61, 0x72, 0x69, 0x74, 0x68, 0x2e, 0x63, 0x6f,
  0x6e, 0x73, 0x74, 0x61, 0x6e, 0x74, 0x00, 0x00, 0x02, 0x00, 0x00, 0x00,
  0x40, 0x00, 0x00, 0x00, 0x08, 0x00, 0x00, 0x00, 0x00, 0x00, 0x16, 0x00,
  0x1c, 0x00, 0x18, 0x00, 0x00, 0x00, 0x14, 0x00, 0x10, 0x00, 0x0c, 0x00,
  0x00, 0x00, 0x00, 0x00, 0x08, 0x00, 0x07, 0x00, 0x16, 0x00, 0x00, 0x00,
  0x00, 0x00, 0x00, 0x01, 0x14, 0x00, 0x00, 0x00, 0x20, 0x00, 0x00, 0x00,
  0x20, 0x00, 0x00, 0x00, 0x01, 0x00, 0x00, 0x00, 0x3c, 0x00, 0x00, 0x00,
  0x02, 0x00, 0x00, 0x00, 0xff, 0xff, 0xff, 0xff, 0x08, 0x00, 0x00, 0x00,
  0x04, 0x00, 0x04, 0x00, 0x04, 0x00, 0x00, 0x00, 0x1e, 0x00, 0x00, 0x00,
  0x73, 0x65, 0x72, 0x76, 0x69, 0x6e, 0x67, 0x5f, 0x64, 0x65, 0x66, 0x61,
  0x75, 0x6c, 0x74, 0x5f, 0x6b, 0x65, 0x72, 0x61, 0x73, 0x5f, 0x74, 0x65,
  0x6e, 0x73, 0x6f, 0x72, 0x3a, 0x30, 0x00, 0x00, 0x02, 0x00, 0x00, 0x00,
  0x01, 0x00, 0x00, 0x00, 0x08, 0x00, 0x00, 0x00, 0x02, 0x00, 0x00, 0x00,
  0x2c, 0x00, 0x00, 0x00, 0x10, 0x00, 0x00, 0x00, 0x0c, 0x00, 0x0c, 0x00,
  0x0b, 0x00, 0x00, 0x00, 0x00, 0x00, 0x04, 0x00, 0x0c, 0x00, 0x00, 0x00,
  0x19, 0x00, 0x00, 0x00, 0x00, 0x00, 0x00, 0x19, 0x0c, 0x00, 0x10, 0x00,
  0x0f, 0x00, 0x00, 0x00, 0x08, 0x00, 0x04, 0x00, 0x0c, 0x00, 0x00, 0x00,
  0x09, 0x00, 0x00, 0x00, 0x0c, 0x00, 0x00, 0x00, 0x00, 0x00, 0x00, 0x09
};
unsigned int __output_model_tflite_len = 9936;
